{
  "</s>": 0,
  "<unk>": 1,
  ",": 2,
  ".": 3,
  "\u2581sa": 4,
  "\u2581ng": 5,
  "\u2581na": 6,
  "\u2581ang": 7,
  "\u2581the": 8,
  "\u2581\"": 9,
  "\u2581mga": 10,
  "\u2581of": 11,
  "\u2581to": 12,
  "\u2581-": 13,
  "\u2581at": 14,
  "\u2581ay": 15,
  "\u2581and": 16,
  "ng": 17,
  "\u2581in": 18,
  "\u2581a": 19,
  "'": 20,
  "s": 21,
  "?": 22,
  "\u2581that": 23,
  ":": 24,
  "\u2581isang": 25,
  "\u2581\u2014": 26,
  "\u2581is": 27,
  "\u2581ni": 28,
  "g": 29,
  "\u2581ito": 30,
  "\u2581Ang": 31,
  "\u2581for": 32,
  "\u2581I": 33,
  "y": 34,
  "\u2581hindi": 35,
  "\u2581kaniyang": 36,
  "\u2581may": 37,
  "\u2581was": 38,
  "\u2581with": 39,
  "\u2581be": 40,
  "\u2581you": 41,
  "\u2581his": 42,
  "\u2581The": 43,
  "\u2581on": 44,
  "\u2581as": 45,
  "\u2581not": 46,
  "\u2581are": 47,
  "\u2581it": 48,
  "\u2581God": 49,
  "\u2581Diyos": 50,
  "\u2581have": 51,
  "\u2581Jesus": 52,
  "\u2581Jehova": 53,
  "\u2581si": 54,
  "\u2581Jehovah": 55,
  "\u2581nang": 56,
  ";": 57,
  "\u2581he": 58,
  "t": 59,
  "\u2581kung": 60,
  "\u2581": 61,
  "\u2581pag": 62,
  "\u2581will": 63,
  "\u2581we": 64,
  "\u2581by": 65,
  "\u2581Sa": 66,
  "\u2581from": 67,
  "\u2581kanilang": 68,
  "!": 69,
  "\u2581'": 70,
  "\u2581pa": 71,
  "\u2581niya": 72,
  "\u2581they": 73,
  "\u2581their": 74,
  "\u2581siya": 75,
  "\u2581[": 76,
  "\u2581(": 77,
  "\u2581o": 78,
  "\u2581this": 79,
  "\u2581ko": 80,
  "\u2581tao": 81,
  "\u2581upang": 82,
  "\u2581or": 83,
  "\u2581para": 84,
  "\u2581who": 85,
  "\u2581can": 86,
  "\u2581ako": 87,
  "\u2581were": 88,
  "\u2581\u2018": 89,
  "\u2581all": 90,
  "\u2581one": 91,
  "\u2581Bible": 92,
  "\u2581mo": 93,
  "\u2581lahat": 94,
  "\u2581sila": 95,
  "\u2581your": 96,
  "\u2581had": 97,
  "\u2581them": 98,
  ")": 99,
  "\u2581Bibliya": 100,
  "\u2581our": 101,
  "\u2581an": 102,
  "\u2581isa": 103,
  "ing": 104,
  "\u2581my": 105,
  "\u2581At": 106,
  "\u2581do": 107,
  "\u2581nito": 108,
  "\u2581what": 109,
  "\u2581him": 110,
  "\u2581has": 111,
  "\u2581aking": 112,
  "\u2581iyong": 113,
  "\u2581In": 114,
  "\u2581us": 115,
  "\u2581people": 116,
  "\u2581bagay": 117,
  "\u2581kay": 118,
  "\u2581iba": 119,
  "\u2581lamang": 120,
  "]": 121,
  "\u2581walang": 122,
  "\u2581man": 123,
  "\u2581when": 124,
  "\u2581What": 125,
  "\u2581natin": 126,
  "\u2581but": 127,
  "\u2581about": 128,
  "\u2581ating": 129,
  "\u2581mula": 130,
  "\u2581ka": 131,
  "\u2581would": 132,
  "\u2581nila": 133,
  "\u2581me": 134,
  "\u2581tungkol": 135,
  "\u2581A": 136,
  "\u2581time": 137,
  "\u2581iyon": 138,
  "\u2581anak": 139,
  "\u2581bilang": 140,
  "\u2581Ano": 141,
  "\u2581noong": 142,
  "\u2581buhay": 143,
  "\u2581pang": 144,
  "\u2581araw": 145,
  "\u2581ba": 146,
  "\u2581so": 147,
  "\u2581more": 148,
  "\u2581out": 149,
  "\u25811": 150,
  "\u2581tayo": 151,
  "\u2581naman": 152,
  "\u2581did": 153,
  "\u2581life": 154,
  "\u2581dahil": 155,
  "\u2581kaniya": 156,
  "\u2581some": 157,
  "\u2581up": 158,
  "\u2581been": 159,
  "\u2581panahon": 160,
  "\u2581also": 161,
  "\u2581It": 162,
  "\u2581her": 163,
  "\u2581maaaring": 164,
  "\u2581there": 165,
  "\u2581taon": 166,
  "\u2581Kung": 167,
  "\u2581which": 168,
  "\u2581said": 169,
  "\u2581maging": 170,
  "\u2581rin": 171,
  "\u2581How": 172,
  "\u2581He": 173,
  "\u2581pamamagitan": 174,
  "\u2581those": 175,
  "\u2581ilang": 176,
  "a": 177,
  "\u2581many": 178,
  "\u2581dapat": 179,
  "\u2581But": 180,
  "\u2581ngayon": 181,
  "\u2581mag": 182,
  "\u2581di": 183,
  "\u2581nag": 184,
  "\u2581such": 185,
  "\u2581no": 186,
  "\u2581And": 187,
  "\u2581Hindi": 188,
  "an": 189,
  "\u2581into": 190,
  "\u2581ma": 191,
  "\u2581gaya": 192,
  "\u2581loob": 193,
  "\u2581Saksi": 194,
  "\u2581than": 195,
  "\u2581maraming": 196,
  "\u2581other": 197,
  "\u2581buong": 198,
  "\u2581Kristiyano": 199,
  "\u2581lupa": 200,
  "\u2581these": 201,
  "\u2581pahina": 202,
  "\u2581kanila": 203,
  "\u2581if": 204,
  "\u2581even": 205,
  "\u2581mas": 206,
  "\u2581world": 207,
  "\u2581Witnesses": 208,
  "\u2581nasa": 209,
  "\u2581years": 210,
  "\u2581Israel": 211,
  "\u2581how": 212,
  "\u2581din": 213,
  "ang": 214,
  "\u2581paraan": 215,
  "\u2581sabi": 216,
  "\"": 217,
  "\u2581page": 218,
  "\u2581sinabi": 219,
  "\u2581nga": 220,
  "\u2581day": 221,
  "\u2581way": 222,
  "\u2581things": 223,
  "\u2581good": 224,
  "\u2581ibang": 225,
  "\u2581Kaya": 226,
  "\u2581should": 227,
  "\u2581children": 228,
  "\u2581ano": 229,
  "\u2581For": 230,
  "\u2581This": 231,
  "\u2581could": 232,
  "\u2581work": 233,
  "\u2581akin": 234,
  "ed": 235,
  "\u2581hanggang": 236,
  "\u2581help": 237,
  "\u2581sarili": 238,
  "\u2581They": 239,
  "\u2581bansa": 240,
  "\u2581does": 241,
  "...": 242,
  "\u2581Nang": 243,
  "\u2581its": 244,
  "\u2581babae": 245,
  "d": 246,
  "\u2581We": 247,
  "\u2581ibig": 248,
  "\u2581she": 249,
  "\u2581over": 250,
  "\u2581make": 251,
  "\u2581only": 252,
  "\u2581Na": 253,
  "\u2581earth": 254,
  "\u2581first": 255,
  "\u2581atin": 256,
  "\u2581When": 257,
  "\u2581because": 258,
  "\u2581says": 259,
  "in": 260,
  "\u2581made": 261,
  "\u2581siyang": 262,
  "n": 263,
  "\u2581taong": 264,
  "\u2581kami": 265,
  "\u2581Paul": 266,
  "\u2581Subalit": 267,
  "\u2581Panginoon": 268,
  "\u2581naging": 269,
  "\u2581Paano": 270,
  "\u2581love": 271,
  "\u2581like": 272,
  "\u2581Kingdom": 273,
  "\u2581Christian": 274,
  "\u2581David": 275,
  "\u2581bayan": 276,
  "\u2581lalaki": 277,
  "\u2581kapag": 278,
  "\u2581magulang": 279,
  "\u2581/": 280,
  "\u2581being": 281,
  "\u2581Christ": 282,
  "\u2581As": 283,
  "\u2581asawa": 284,
  "\u2581inyong": 285,
  "\u2581B": 286,
  "\u2581shall": 287,
  "\u2581gayon": 288,
  "\u2581Gayunman": 289,
  "\u2581bahagi": 290,
  "\u2581Pablo": 291,
  "\u2581gayong": 292,
  "\u2581then": 293,
  "\u2581Why": 294,
  "\u2581Bakit": 295,
  "\u2581kaya": 296,
  "\u2581Isang": 297,
  "ly": 298,
  "\u2581iyo": 299,
  "\u2581bahay": 300,
  "\u2581before": 301,
  "\u2581If": 302,
  "\u2581see": 303,
  "\u2581pamilya": 304,
  "E": 305,
  "\u2581come": 306,
  "\u2581kayo": 307,
  "\u2581now": 308,
  "\u2581bawat": 309,
  "\u2581tunay": 310,
  "\u2581Kristo": 311,
  "\u2581ayon": 312,
  "\u2581family": 313,
  "\u2581aming": 314,
  "\u2581just": 315,
  "\u2581others": 316,
  "\u2581Si": 317,
  "\u2581two": 318,
  "\u2581know": 319,
  "\u2581after": 320,
  "\u2581must": 321,
  "\u2581dalawang": 322,
  "\u2581namin": 323,
  "\u2581kapatid": 324,
  "\u25812": 325,
  "the": 326,
  "\u2581gawain": 327,
  "\u2581You": 328,
  "\u2581well": 329,
  "\u2581kasama": 330,
  "\u2581men": 331,
  "\u2581higit": 332,
  "\u2581unang": 333,
  "\u2581b": 334,
  "\u2581Mga": 335,
  "\u2581Christians": 336,
  "\u2581paano": 337,
  "\u2581any": 338,
  "\u2581Ito": 339,
  "\u2581niyang": 340,
  "\u2581take": 341,
  "\u2581need": 342,
  "\u2581Picture": 343,
  "\u2581kong": 344,
  "\u2581bata": 345,
  "Ang": 346,
  "\u2581aklat": 347,
  "\u2581daigdig": 348,
  "\u2581kundi": 349,
  "\u2581new": 350,
  "\u2581So": 351,
  "\u2581bagong": 352,
  "\u2581dito": 353,
  "\u2581own": 354,
  "\u2581C": 355,
  "\u2581year": 356,
  "\u2581puso": 357,
  "\u2581iyan": 358,
  "\u2581example": 359,
  "\u2581ninyo": 360,
  "\u2581much": 361,
  "\u2581most": 362,
  "\u2581very": 363,
  "\u2581through": 364,
  "\u2581faith": 365,
  "\u2581wala": 366,
  "\u2581spirit": 367,
  "\u2581New": 368,
  "\u2581gawin": 369,
  "\u2581dahilan": 370,
  "\u2581nating": 371,
  "\u2581become": 372,
  "I": 373,
  "\u2581kailangan": 374,
  "\u2581akong": 375,
  "\u2581Noo": 376,
  "\u2581dako": 377,
  "\u2581heart": 378,
  "\u2581another": 379,
  "\u2581mong": 380,
  "\u2581Pero": 381,
  "\u2581Jerusalem": 382,
  "\u2581parents": 383,
  "\u2581aaral": 384,
  "\u2581daan": 385,
  "\u2581death": 386,
  "\u2581Ma": 387,
  "\u2581kalagayan": 388,
  "\u2581espirituwal": 389,
  "\u2581May": 390,
  "\u2581malaking": 391,
  "\u25813:": 392,
  "\u2581against": 393,
  "\u2581say": 394,
  "\u2581words": 395,
  "\u2581salita": 396,
  "\u2581where": 397,
  "\u2581sapagkat": 398,
  "\u2581kaysa": 399,
  "\u2581came": 400,
  "\u2581name": 401,
  "\u2581found": 402,
  "\u2581Kaharian": 403,
  "\u2581true": 404,
  "\u2581marami": 405,
  "\u2581pangalan": 406,
  "\u2581saan": 407,
  "\u2581ilan": 408,
  "S": 409,
  "\u2581great": 410,
  "\u2581mabuting": 411,
  "\u2581katotohanan": 412,
  "\u2581magiging": 413,
  "\u2581give": 414,
  "\u2581pananampalataya": 415,
  "\u2581sinasabi": 416,
  "\u2581tubig": 417,
  "\u2581lugar": 418,
  "\u25812:": 419,
  "\u258115": 420,
  "\u2581John": 421,
  "\u2581times": 422,
  "\u2581bago": 423,
  "\u2581panahong": 424,
  "\u2581One": 425,
  "\u2581home": 426,
  "\u2581down": 427,
  "\u2581kongregasyon": 428,
  "\u2581go": 429,
  "\u2581congregation": 430,
  "\u2581anupat": 431,
  "\u2581hari": 432,
  "\u2581spiritual": 433,
  "\u2581silang": 434,
  "e": 435,
  "\u2581pagkatapos": 436,
  "\u2581Pagkatapos": 437,
  "o": 438,
  "\u2581espiritu": 439,
  "\u2581book": 440,
  "\u2581ones": 441,
  "\u2581That": 442,
  "\u2581Larawan": 443,
  "\u2581study": 444,
  "\u2581young": 445,
  "\u2581upon": 446,
  "\u2581anumang": 447,
  "\u2581person": 448,
  "\u2581ginawa": 449,
  "\u2581house": 450,
  "\u2581every": 451,
  "\u2581each": 452,
  "\u2581part": 453,
  "\u2581called": 454,
  "\u2581might": 455,
  "\u2581put": 456,
  "\u2581use": 457,
  "\u2581pagkain": 458,
  "\u25814:": 459,
  "\u2581get": 460,
  "\u2581huwag": 461,
  "\u2581To": 462,
  "\u2581today": 463,
  "\u2581long": 464,
  "\u25a1": 465,
  "\u2581away": 466,
  "\u2581i": 467,
  "\u2581apostol": 468,
  "\u2581bang": 469,
  "\u2581kailangang": 470,
  "er": 471,
  "\u2581same": 472,
  "\u258120": 473,
  "\u2581used": 474,
  "\u2581laban": 475,
  "\u2581find": 476,
  "\u2581patuloy": 477,
  "\u2581sanlibutan": 478,
  "\u2581alang": 479,
  "\u2581human": 480,
  "\u2581place": 481,
  "\u2581nilang": 482,
  "\u25811:": 483,
  "\u2581personal": 484,
  "\u2581often": 485,
  "\u2581problema": 486,
  "\u2581among": 487,
  "\u2581ngunit": 488,
  "\u2581tapat": 489,
  "\u2581halimbawa": 490,
  "\u25815:": 491,
  "\u2581Sinabi": 492,
  "\u2581kahit": 493,
  "\u2581kamatayan": 494,
  "\u2581bakit": 495,
  "\u2581Some": 496,
  "\u2581truth": 497,
  "\u2581relihiyon": 498,
  "\u2581However": 499,
  "\u2581feel": 500,
  "\u2581days": 501,
  "\u2581Isa": 502,
  "\u2581noon": 503,
  "\u2581lang": 504,
  "\u2581ikaw": 505,
  "\u2581under": 506,
  "\u2581uri": 507,
  "\u2581Pag": 508,
  "\u2581back": 509,
  "\u2581old": 510,
  "\u2581siglo": 511,
  "\u2581am": 512,
  "\u2581O": 513,
  "al": 514,
  "\u2581too": 515,
  "\u2581h": 516,
  "\u2581Then": 517,
  "\u2581inyo": 518,
  "\u2581Dahil": 519,
  "\u2581three": 520,
  "\u2581Halimbawa": 521,
  "\u2581Para": 522,
  "\u25816:": 523,
  "\u2581himself": 524,
  "\u2581never": 525,
  "\u2581unto": 526,
  "\u2581langit": 527,
  "\u2581gumawa": 528,
  "\u2581though": 529,
  "\u2581pagiging": 530,
  "\u2581end": 531,
  "th": 532,
  "\u2581Wala": 533,
  "m": 534,
  "\u2581P": 535,
  "\u2581T": 536,
  "\u2581right": 537,
  "\u2581hand": 538,
  "\u2581lupain": 539,
  "\u2581alam": 540,
  "\u2581let": 541,
  "\u2581still": 542,
  "\u2581habang": 543,
  "\u2581Kapag": 544,
  "\u2581gawa": 545,
  "\u2581keep": 546,
  "\u2581subalit": 547,
  "\u2581ulat": 548,
  "\u2581ginagawa": 549,
  "sa": 550,
  "\u2581tayong": 551,
  "\u2581sabihin": 552,
  "\u2581There": 553,
  "\u2581halos": 554,
  "\u2581wika": 555,
  "\u2581mahigit": 556,
  "\u2581means": 557,
  "\u2581muli": 558,
  "\u2581sakit": 559,
  "\u2581dugo": 560,
  "\u2581water": 561,
  "\u2581*": 562,
  "\u2581Juan": 563,
  "\u2581why": 564,
  "\u2581Bagaman": 565,
  "\u2581word": 566,
  "\u2581king": 567,
  "\u2581minsan": 568,
  "\u2581Do": 569,
  "\u2581read": 570,
  "\u2581Is": 571,
  "\u2581kamay": 572,
  "\u2581son": 573,
  "\u2581magkaroon": 574,
  "re": 575,
  "\u2581World": 576,
  "\u2581became": 577,
  "\u2581kapuwa": 578,
  "\u2581baka": 579,
  "\u2581maaari": 580,
  "\u2581After": 581,
  "\u2581during": 582,
  "na": 583,
  "C": 584,
  "\u2581without": 585,
  "\u2581Dios": 586,
  "\u2581banal": 587,
  "\u2581halip": 588,
  "\u2581pagka": 589,
  "\u2581brothers": 590,
  "\u2581tulong": 591,
  "\u2581mabuti": 592,
  "\u2581child": 593,
  "\u2581live": 594,
  "\u2581set": 595,
  "\u2581tatlong": 596,
  "\u2581kaibigan": 597,
  "),": 598,
  "\u2581want": 599,
  "r": 600,
  "inggil": 601,
  "\u2581sariling": 602,
  "\u2581itong": 603,
  "\u2581themselves": 604,
  "\u25811,": 605,
  "\u2581given": 606,
  "\u2581began": 607,
  "\u2581century": 608,
  "\u2581wife": 609,
  "\u2581article": 610,
  "\u2581ina": 611,
  "\u2581blood": 612,
  "\u2581wrote": 613,
  "\u2581lingkod": 614,
  "\u2581doon": 615,
  "\u2581karamihan": 616,
  "\u2581isip": 617,
  "\u2581rito": 618,
  "\u2581while": 619,
  "-": 620,
  "\u2581Word": 621,
  "\u2581maka": 622,
  "\u2581city": 623,
  "\u2581buwan": 624,
  "\u2581kabataan": 625,
  "\u2581trabaho": 626,
  "\u2581told": 627,
  "\u2581father": 628,
  "\u2581Oo": 629,
  "\u2581land": 630,
  "The": 631,
  "\u2581later": 632,
  "\u2581Peter": 633,
  "\u2581apostle": 634,
  "\u2581Salita": 635,
  "\u2581show": 636,
  "\u2581course": 637,
  "\u2581lalo": 638,
  "\u258112": 639,
  "\u2581ilalim": 640,
  "\u2581between": 641,
  "\u2581hayop": 642,
  "A": 643,
  "\u2581peace": 644,
  "\u2022": 645,
  "\u25818": 646,
  "\u2581Satanas": 647,
  "\u2581taga": 648,
  "\u2581ama": 649,
  "\u2581however": 650,
  "\u2581kang": 651,
  "\u2581went": 652,
  "\u2581katawan": 653,
  "\u2581kaugnayan": 654,
  "\u2581both": 655,
  "\u2581Satan": 656,
  "\u2581malapit": 657,
  "\u2581living": 658,
  "\u2581took": 659,
  "\u2581Abraham": 660,
  "\u2581off": 661,
  "\u2581important": 662,
  "\u2581My": 663,
  "\u2581number": 664,
  "\u2581power": 665,
  "\u2581able": 666,
  "\u2581anong": 667,
  "\u2581By": 668,
  "\u2581learn": 669,
  "\u2581kasalanan": 670,
  "\u2581little": 671,
  "\u2581mother": 672,
  "\u2581Ka": 673,
  "\u2581She": 674,
  "\u2581fact": 675,
  "\u2581On": 676,
  "\u2581gave": 677,
  "\u2581Ngunit": 678,
  "\u2581mind": 679,
  "\u2581talagang": 680,
  "\u2581With": 681,
  "....": 682,
  "\u2581hope": 683,
  "i": 684,
  "\u2581yaong": 685,
  "\u25813": 686,
  "\u2581Ganito": 687,
  "\u2581asa": 688,
  "\u2581Father": 689,
  "\u2581tulad": 690,
  "\u2581alagad": 691,
  "\u2581worship": 692,
  "\u258119": 693,
  "\u2581high": 694,
  "\u2581balita": 695,
  "\u2581ring": 696,
  "\u2581Pedro": 697,
  "\u2581pinag": 698,
  "\u2581news": 699,
  "\u2581tanong": 700,
  "\u2581tahanan": 701,
  "\u2581view": 702,
  "\u2581Awit": 703,
  "\u2581saying": 704,
  "k": 705,
  "\u258111": 706,
  "\u2581few": 707,
  "\u2581larawan": 708,
  "ba": 709,
  "\u2581oras": 710,
  "\u2581religious": 711,
  "\u2581whom": 712,
  "\u2581pansin": 713,
  "\u2581Siya": 714,
  "\u2581Job": 715,
  "\u2581kapangyarihan": 716,
  "\u2581food": 717,
  "\u2581really": 718,
  "\u258110": 719,
  "\u2581again": 720,
  "\u2581mismo": 721,
  "ma": 722,
  "\u2581paggawa": 723,
  "\u2581buhat": 724,
  "\u2581porsiyento": 725,
  "\u258118": 726,
  "\u2581knowledge": 727,
  "\u2581full": 728,
  "\u2581LORD": 729,
  "\u2581payo": 730,
  "\u2581gusto": 731,
  "\u2581lunsod": 732,
  "\u2581Many": 733,
  "\u2581matuwid": 734,
  "\u2581nagsabi": 735,
  "\u2581kaalaman": 736,
  "\u2581service": 737,
  "\u2581Yet": 738,
  "\u2581having": 739,
  "\u2581ta\u00f3ng": 740,
  "\u2581Matthew": 741,
  "\u2581always": 742,
  "\u2581together": 743,
  "\u2581artikulo": 744,
  "\u2581Jesu": 745,
  "\u2581naka": 746,
  "\u2581women": 747,
  "\u2581United": 748,
  "\u2581harap": 749,
  "\u2581kapayapaan": 750,
  "\u2581doing": 751,
  "\u2581Judio": 752,
  "\u2581E": 753,
  "\u2581woman": 754,
  "\u2581ginagamit": 755,
  "\u2581digmaan": 756,
  "\u2581since": 757,
  "\u2581lubhang": 758,
  "\u2581s": 759,
  "\u2581Kristiyanong": 760,
  "c": 761,
  "it": 762,
  "\u258130": 763,
  "\u2581layunin": 764,
  "\u2581mata": 765,
  "\u2581These": 766,
  "\u2581holy": 767,
  "\u2581left": 768,
  "\u2581school": 769,
  "\u2581asked": 770,
  "\u2581Mateo": 771,
  "mga": 772,
  "\u2581making": 773,
  "\u2581Ama": 774,
  "\u2581problems": 775,
  "\u2581No": 776,
  "\u2581His": 777,
  "\u2581U": 778,
  "\u2581think": 779,
  "\u2581bring": 780,
  "\u2581done": 781,
  "\u2581pangangailangan": 782,
  "\u2581salitang": 783,
  "\u2581percent": 784,
  "\u2581Ako": 785,
  "\u2581pero": 786,
  "\u2581mayroon": 787,
  "\u2581Lord": 788,
  "\u2581something": 789,
  "\u2581brother": 790,
  "\u2581result": 791,
  "\u2581From": 792,
  "\u2581lakas": 793,
  "\u2581known": 794,
  "\u2581wakas": 795,
  "\u2581Kasulatan": 796,
  "\u258117": 797,
  "\u2581Our": 798,
  "\u2581serve": 799,
  "\u2581sistema": 800,
  "\u2581amin": 801,
  "\u2581roon": 802,
  "\u2581faithful": 803,
  "\u2581gabi": 804,
  "\u2581look": 805,
  "\u2581Even": 806,
  "\u2581lubusan": 807,
  "\u2581pangunahing": 808,
  "\u2581toward": 809,
  "\u2581makita": 810,
  "\u2581sinauna": 811,
  "\u2581nations": 812,
  "\u2581last": 813,
  "\u2581preaching": 814,
  "\u2581paglilingkod": 815,
  "\u2581Psalm": 816,
  "\u2581parang": 817,
  "\u2581system": 818,
  "\u2581ministry": 819,
  "\u2581nagsasabi": 820,
  "U": 821,
  "\u2581order": 822,
  "\u2581Anak": 823,
  "\u2581body": 824,
  "\u2581kailanman": 825,
  "\u2581sapagka": 826,
  "alang": 827,
  "\u2581dumating": 828,
  "\u25818,": 829,
  "\u2581reason": 830,
  "\u2581ever": 831,
  "\u2581brought": 832,
  "\u258116": 833,
  "\u2581Yes": 834,
  "\u2581aral": 835,
  "\u2581tinatawag": 836,
  "\u2581ways": 837,
  "\u2581usap": 838,
  "\u2581Daniel": 839,
  "\u2581King": 840,
  "yon": 841,
  "\u2581Solomon": 842,
  "\u2581de": 843,
  "\u2581Thus": 844,
  "\u2581gitna": 845,
  "\u2581around": 846,
  "\u2581Bilang": 847,
  "\u25815": 848,
  "\u2581disciples": 849,
  "\u2581care": 850,
  "\u2581until": 851,
  "\u2581Hari": 852,
  "\u2581nakita": 853,
  "\u2581nor": 854,
  "\u2581mahalagang": 855,
  "\u2581pagsamba": 856,
  "\u2581eyes": 857,
  "\u2581resulta": 858,
  "\u2581war": 859,
  "\u2581taglay": 860,
  "\u2581better": 861,
  "\u2581katulad": 862,
  "\u2581nagbibigay": 863,
  "\u258112:": 864,
  "\u2581different": 865,
  "\u2581mankind": 866,
  "\u2581gayundin": 867,
  "\u2581Mula": 868,
  "\u2581far": 869,
  "\u2581sumulat": 870,
  "\u2581Genesis": 871,
  "\u2581pagkakataon": 872,
  "\u2581regular": 873,
  "\u2581Yahweh": 874,
  "\u2581asawang": 875,
  "\u2581face": 876,
  "\u2581katunayan": 877,
  "\u2581apat": 878,
  "\u2581labis": 879,
  "\u2581katangian": 880,
  "\u2581servants": 881,
  "b": 882,
  "\u2581grupo": 883,
  "\u2581namatay": 884,
  "es": 885,
  "\u25816": 886,
  "\u2581All": 887,
  "\u2581ministeryo": 888,
  "\u2581edad": 889,
  "\u2581panalangin": 890,
  "\u2581tiyak": 891,
  "\u2581totoo": 892,
  "\u2581S": 893,
  "\u2581husband": 894,
  "\u2581Scriptures": 895,
  "\u2581yet": 896,
  "\u2581fear": 897,
  "l": 898,
  "\u2581thought": 899,
  "\u2581mahalaga": 900,
  "\u2581cannot": 901,
  "\u2581cause": 902,
  "\u2581lives": 903,
  "\u2581future": 904,
  "\u258125": 905,
  "\u2581small": 906,
  "\u2581sin": 907,
  "\u2581religion": 908,
  "\u2581nangyari": 909,
  "\u2581pagbabago": 910,
  "\u2581ibinigay": 911,
  "\u2581Estado": 912,
  "\u2581lalaking": 913,
  "\u25814.": 914,
  "\u2581gulang": 915,
  "\u2581samantalang": 916,
  "\u2581karanasan": 917,
  "\u25814": 918,
  "\u2581law": 919,
  "\u2581pagsisikap": 920,
  "\u2581Isaias": 921,
  "\u2581Now": 922,
  "\u2581Hebreo": 923,
  "\u2581four": 924,
  "\u2581marriage": 925,
  "\u2581Isaiah": 926,
  "\u2581saw": 927,
  "\u2581York": 928,
  "\u2581according": 929,
  "\u2581humans": 930,
  "\u2581miyembro": 931,
  "\u2581believe": 932,
  "\u2581ika": 933,
  "\u2581batang": 934,
  "\u2581Son": 935,
  "\u2581free": 936,
  "\u2581pangangaral": 937,
  "\u2581money": 938,
  "\u2581impormasyon": 939,
  "\u2581age": 940,
  "\u2581lalong": 941,
  "\u25817": 942,
  "\u2581pangyayari": 943,
  "\u2581Roma": 944,
  "\u2581sangkatauhan": 945,
  "\u258110:": 946,
  "\u2581experience": 947,
  "\u25819": 948,
  "\u2581Upang": 949,
  "\u258111:": 950,
  "\u2581million": 951,
  "\u2581heaven": 952,
  "\u2581following": 953,
  "\u2581Moses": 954,
  "\u2581loving": 955,
  "\u2581light": 956,
  "\u2581Your": 957,
  "\u2581possible": 958,
  "\u2581kabilang": 959,
  "\u2581Moises": 960,
  "\u2581dating": 961,
  "\u2581someone": 962,
  "\u2581early": 963,
  "\u2581going": 964,
  "p": 965,
  "\u2581gumagawa": 966,
  "\u2581kagalakan": 967,
  "\u2581nais": 968,
  "\u2581purpose": 969,
  "\u2581babaing": 970,
  "\u2581utos": 971,
  "\u2581questions": 972,
  "\u2581nagkaroon": 973,
  "\u258114": 974,
  "\u2581pina": 975,
  "\u2581kalooban": 976,
  "\u2581ganitong": 977,
  "\u2581felt": 978,
  "\u2581Sinasabi": 979,
  "\u2581Pa": 980,
  "\u2581needed": 981,
  "\u2581Gaya": 982,
  "\u2581along": 983,
  "\u2581Hall": 984,
  "\u2581next": 985,
  "\u2581friends": 986,
  "\u2581matter": 987,
  "\u2581Sila": 988,
  "\u2581moral": 989,
  "\u2581thou": 990,
  "\u2581consider": 991,
  "\u2581nagiging": 992,
  "te": 993,
  "\u2581pati": 994,
  "\u2581thus": 995,
  "\u25817:": 996,
  "\u2581best": 997,
  "\u2581learned": 998,
  "\u2581hard": 999,
  "\u258113": 1000,
  "\u2581health": 1001,
  "\u2581Di": 1002,
  "\u2581pagitan": 1003,
  "\u2581Nag": 1004,
  "\u2581pulong": 1005,
  "\u2581huling": 1006,
  "\u2581nakalipas": 1007,
  "\u2581joy": 1008,
  "\u2581propeta": 1009,
  "\u2581sent": 1010,
  "\u2581karaniwang": 1011,
  "\u2581thing": 1012,
  "\u2581paggamit": 1013,
  "le": 1014,
  "\u2581Corinto": 1015,
  "\u2581helped": 1016,
  "\u2581kaming": 1017,
  "\u2581damdamin": 1018,
  "\u2581Let": 1019,
  "\u2581dead": 1020,
  "\u2581Because": 1021,
  "\u2581malamang": 1022,
  "\u2581kaluluwa": 1023,
  "\u2581ganito": 1024,
  "\u2581kabataang": 1025,
  "\u2581Watchtower": 1026,
  "\u2581nakikita": 1027,
  "\u258122,": 1028,
  "\u2581form": 1029,
  "\u2581yourself": 1030,
  "\u2581certain": 1031,
  "\u2581Haba": 1032,
  "\u2581kayong": 1033,
  "\u2581Huwag": 1034,
  "\u2581Can": 1035,
  "\u2581yamang": 1036,
  "\u258113:": 1037,
  "\u2581fellow": 1038,
  "\u2581present": 1039,
  "\u2581taken": 1040,
  "ka": 1041,
  "\u25815.": 1042,
  "to": 1043,
  "\u2581problem": 1044,
  "\u2581ancient": 1045,
  "\u2581malaman": 1046,
  "\u2581masama": 1047,
  "\u2581kaharian": 1048,
  "\u2581self": 1049,
  "\u2581answer": 1050,
  "\u2581whole": 1051,
  "\u2581close": 1052,
  "\u2581seen": 1053,
  "\u2581wisdom": 1054,
  "\u258123": 1055,
  "\u2581especially": 1056,
  "\u2581pakinabang": 1057,
  "\u2581heard": 1058,
  "\u2581milyong": 1059,
  "\u2581karunungan": 1060,
  "han": 1061,
  "\u2581marahil": 1062,
  "\u2581night": 1063,
  "\u2581waring": 1064,
  "\u25812.": 1065,
  "\u2581mahirap": 1066,
  "\u2581gagawin": 1067,
  "\u2581here": 1068,
  "\u2581prayer": 1069,
  "\u2581According": 1070,
  "\u2581states": 1071,
  "\u2581thy": 1072,
  "\u2581hula": 1073,
  "\u2581laging": 1074,
  "\u2581matatanda": 1075,
  "\u2581Since": 1076,
  "\u2581speak": 1077,
  "\u2581bato": 1078,
  "\u2581happy": 1079,
  "\u2581Kawikaan": 1080,
  "\u2581counsel": 1081,
  "\u2581Proverbs": 1082,
  "\u2581maibigin": 1083,
  "\u2581therefore": 1084,
  "\u2581Unidos": 1085,
  "\u2581fine": 1086,
  "\u2581country": 1087,
  "\u2581epekto": 1088,
  "\u258150": 1089,
  "\u2581elders": 1090,
  "\u2581dagat": 1091,
  "\u258122": 1092,
  "\u2581turn": 1093,
  "\u2581Israelita": 1094,
  "\u258110.": 1095,
  "\u2581sons": 1096,
  "\u2581large": 1097,
  "\u2581batas": 1098,
  "\u2581anghel": 1099,
  "\u2581makikita": 1100,
  "\u2581sumunod": 1101,
  "\u2581wicked": 1102,
  "\u2581Of": 1103,
  "\u2581soon": 1104,
  "\u2581bad": 1105,
  "\u2581bagaman": 1106,
  "\u2581died": 1107,
  "\u2581members": 1108,
  "\u2581meetings": 1109,
  "\u2581States": 1110,
  "\u2581Ngayon": 1111,
  "\u2581Who": 1112,
  "\u2581special": 1113,
  "la": 1114,
  "\u2581report": 1115,
  "or": 1116,
  "\u2581information": 1117,
  "\u2581understand": 1118,
  "\u2581Although": 1119,
  "\u2581An": 1120,
  "\u2581bunga": 1121,
  "\u2581teaching": 1122,
  "\u2581continue": 1123,
  "\u2581ANG": 1124,
  "\u2581tungo": 1125,
  "\u2581situation": 1126,
  "\u2581case": 1127,
  "\u2581real": 1128,
  "\u2581Tingnan": 1129,
  "\u2581Catholic": 1130,
  "\u2581enjoy": 1131,
  "\u258114.": 1132,
  "\u2581ask": 1133,
  "\u2581Jews": 1134,
  "\u2581received": 1135,
  "\u2581control": 1136,
  "\u2581point": 1137,
  "\u2581righteous": 1138,
  "\u2581aasawa": 1139,
  "\u25818.": 1140,
  "\u2581mean": 1141,
  "\u2581magazine": 1142,
  "\u2581reading": 1143,
  "\u2581magagawa": 1144,
  "\u2581talk": 1145,
  "\u2581language": 1146,
  "\u2581maliit": 1147,
  "\u2581patungo": 1148,
  "\u2581kind": 1149,
  "\u25813.": 1150,
  "\u2581kabila": 1151,
  "\u2581Maaaring": 1152,
  "\u2581katuwiran": 1153,
  "\u2581sagot": 1154,
  "\u2581including": 1155,
  "\u2581paaralan": 1156,
  "\u2581support": 1157,
  "\u2581simbahan": 1158,
  "on": 1159,
  "\u2581Kailangan": 1160,
  "\u2581kasaysayan": 1161,
  "\u2581tell": 1162,
  "\u2581matinding": 1163,
  "\u2581nothing": 1164,
  "si": 1165,
  "\u258140": 1166,
  "\u2581Be": 1167,
  "\u2581madaling": 1168,
  "\u2581ulit": 1169,
  "\u2581H": 1170,
  "\u2581sakdal": 1171,
  "ri": 1172,
  "\u258115,": 1173,
  "\u2581Apocalipsis": 1174,
  "\u2581Greek": 1175,
  "\u2581five": 1176,
  "\u25817.": 1177,
  "\u2581countries": 1178,
  "\u2581artikulong": 1179,
  "\u2581panganib": 1180,
  "\u2581church": 1181,
  "\u2581Dapat": 1182,
  "\u2581share": 1183,
  "\u2581muling": 1184,
  "\u2581Saul": 1185,
  "\u2581m": 1186,
  "\u2581isipan": 1187,
  "\u2581Tower": 1188,
  "\u2581ding": 1189,
  "\u2581Maraming": 1190,
  "\u2581isinulat": 1191,
  "\u258131": 1192,
  "\u2581ipinakikita": 1193,
  "\u2581Revelation": 1194,
  "\u2581feet": 1195,
  "\u2581iisip": 1196,
  "\u2581pagpapala": 1197,
  "ic": 1198,
  "\u2581change": 1199,
  "\u2581Watch": 1200,
  "\u2581attention": 1201,
  "\u2581Corinthians": 1202,
  "\u258111.": 1203,
  "\u2581makes": 1204,
  "\u2581relationship": 1205,
  "\u2581ginamit": 1206,
  "\u2581ulo": 1207,
  "\u2581alipin": 1208,
  "\u2581near": 1209,
  "\u2581kalusugan": 1210,
  "\u2581sister": 1211,
  "\u2581group": 1212,
  "\u2581question": 1213,
  "\u2581message": 1214,
  "\u2581Yamang": 1215,
  "\u2581While": 1216,
  "\u2581naming": 1217,
  "\u2581labas": 1218,
  "\u2581desire": 1219,
  "\u2581giving": 1220,
  "ni": 1221,
  "\u2581takot": 1222,
  "\u2581Today": 1223,
  "li": 1224,
  "pa": 1225,
  "\u2581difficult": 1226,
  "ers": 1227,
  "\u25818:": 1228,
  "\u2581kahulugan": 1229,
  "\u2581feelings": 1230,
  "\u258113.": 1231,
  "\u2581angkop": 1232,
  "\u258116.": 1233,
  "\u2581liwanag": 1234,
  "Sa": 1235,
  "\u2581forth": 1236,
  "\u2581Aprika": 1237,
  "\u2581strong": 1238,
  "G": 1239,
  "\u2581pamantayan": 1240,
  "\u2581AIDS": 1241,
  "\u2581Mo": 1242,
  "\u2581SA": 1243,
  "\u2581needs": 1244,
  "\u2581don": 1245,
  "\u2581sana": 1246,
  "\u2581libong": 1247,
  "\u2581binanggit": 1248,
  "\u2581baptized": 1249,
  "\u2581patay": 1250,
  "\u2581once": 1251,
  "\u2581Dr": 1252,
  "\u2581baga": 1253,
  "\u2581doktor": 1254,
  "u": 1255,
  "\u25813,": 1256,
  "\u2581avoid": 1257,
  "\u2581Are": 1258,
  "\u25819.": 1259,
  "\u2581suliranin": 1260,
  "lu": 1261,
  "\u2581second": 1262,
  "\u2581reports": 1263,
  "\u2581Timothy": 1264,
  "\u2581receive": 1265,
  "\u258115:": 1266,
  "\u2581pinaka": 1267,
  "\u2581mataas": 1268,
  "\u2581Kaniyang": 1269,
  "\u2581anyo": 1270,
  "\u2581heavenly": 1271,
  "\u2581lead": 1272,
  "\u2581sense": 1273,
  "\u2581wise": 1274,
  "\u2581Sino": 1275,
  "\u2581simply": 1276,
  "\u2581halaga": 1277,
  "\u258112.": 1278,
  "\u2581Creator": 1279,
  "\u2581James": 1280,
  "\u2581sanggol": 1281,
  "\u2581People": 1282,
  "\u258124": 1283,
  "\u25816.": 1284,
  "\u2581thee": 1285,
  "no": 1286,
  "\u2581comes": 1287,
  "\u2581Awake": 1288,
  "\u2581Not": 1289,
  "\u2581Timoteo": 1290,
  "\u2581kingdom": 1291,
  "\u2581Samuel": 1292,
  "\u2581Footnote": 1293,
  "\u2581Bago": 1294,
  "\u2581try": 1295,
  "\u2581nation": 1296,
  "\u2581galit": 1297,
  "\u2581soul": 1298,
  "\u2581past": 1299,
  "\u2581tingnan": 1300,
  "\u2581ninyong": 1301,
  "\u2581agad": 1302,
  "\u2581months": 1303,
  "\u2581huli": 1304,
  "\u2581respect": 1305,
  "\u2581Society": 1306,
  "\u2581works": 1307,
  "\u2581Bethel": 1308,
  "\u2581involved": 1309,
  "\u2581whether": 1310,
  "\u2581limang": 1311,
  "\u2581provide": 1312,
  "\u2581call": 1313,
  "\u2581sina": 1314,
  "\u2581wrong": 1315,
  "\u2581templo": 1316,
  "\u2581ye": 1317,
  "\u2581elder": 1318,
  "\u2581knew": 1319,
  "\u2581within": 1320,
  "\u2581saserdote": 1321,
  "\u2581niyaon": 1322,
  "\u2581wanted": 1323,
  "\u258117:": 1324,
  "\u2581die": 1325,
  "\u25819:": 1326,
  "\u2581taking": 1327,
  "\u2581anointed": 1328,
  "\u2581linggo": 1329,
  "\u2581una": 1330,
  "\u2581likely": 1331,
  "\u2581laman": 1332,
  "\u2581hinaharap": 1333,
  "us": 1334,
  "\u2581natural": 1335,
  "\u2581gaanong": 1336,
  "ro": 1337,
  "\u2581ago": 1338,
  "\u2581already": 1339,
  "\u2581Papaano": 1340,
  "\u2581Gawa": 1341,
  "\u258124:": 1342,
  "\u2581hands": 1343,
  "\u2581head": 1344,
  "\u258117.": 1345,
  "\u2581moved": 1346,
  "\u2581sure": 1347,
  "\u258115.": 1348,
  "\u2581kaso": 1349,
  "\u2581account": 1350,
  "\u2581Jacob": 1351,
  "\u2581paanong": 1352,
  "\u2581sino": 1353,
  "\u2581history": 1354,
  "\u2581pangmalas": 1355,
  "\u2581local": 1356,
  "Kahit": 1357,
  "\u2581magasing": 1358,
  "\u2581tumanggap": 1359,
  "\u2581Australia": 1360,
  "\u2581ukol": 1361,
  "\u2581malaki": 1362,
  "\u2581Luke": 1363,
  "T": 1364,
  "\u2581Israelites": 1365,
  "\u2581tulungan": 1366,
  "\u2581magandang": 1367,
  "\u2581sapat": 1368,
  "\u2581mensahe": 1369,
  "di": 1370,
  "\u2581conduct": 1371,
  "\u2581pananagutan": 1372,
  "\u2581saloobin": 1373,
  "\u2581tupa": 1374,
  "ukod": 1375,
  "\u2581stand": 1376,
  "\u2581Such": 1377,
  "\u2581salapi": 1378,
  "\u2581sea": 1379,
  "\u2581follow": 1380,
  "\u2581coming": 1381,
  "\u2581%": 1382,
  "\u258121": 1383,
  "\u2581hanggan": 1384,
  "\u2581less": 1385,
  "\u2581pagsubok": 1386,
  "\u2581hangin": 1387,
  "\u2581susunod": 1388,
  "ra": 1389,
  "\u2581pamumuhay": 1390,
  "\u2581government": 1391,
  "\u2581relihiyosong": 1392,
  "\u2581pioneer": 1393,
  "\u2581namang": 1394,
  "\u2581gamitin": 1395,
  "\u2581tamang": 1396,
  "\u2581Sapagka": 1397,
  "\u2581maglaon": 1398,
  "\u2581mang": 1399,
  "\u2581ten": 1400,
  "isang": 1401,
  "\u2581started": 1402,
  "\u2581Those": 1403,
  "\u2581estudyante": 1404,
  "\u2581nagbigay": 1405,
  "\u2581Dur": 1406,
  "\u2581alone": 1407,
  "\u2581kaaway": 1408,
  "\u2581public": 1409,
  "\u2581righteousness": 1410,
  "\u2581Box": 1411,
  "\u2581Their": 1412,
  "\u2581G": 1413,
  "\u2581guro": 1414,
  "\u2581temple": 1415,
  "\u2581common": 1416,
  "\u2581suffering": 1417,
  "\u2581rather": 1418,
  "\u258114:": 1419,
  "\u2581nagtagal": 1420,
  "\u2581ourselves": 1421,
  "\u2581longer": 1422,
  "\u2581turo": 1423,
  "\u2581magkakaroon": 1424,
  "\u2581written": 1425,
  "\u2581further": 1426,
  "\u2581indibiduwal": 1427,
  "\u2581muna": 1428,
  "ve": 1429,
  "\u2581tanging": 1430,
  "\u2581return": 1431,
  "\u2581hear": 1432,
  "\u2581pakikipag": 1433,
  "\u2581mismong": 1434,
  "\u2581area": 1435,
  "\u2581eat": 1436,
  "\u2581neither": 1437,
  "\u2581similar": 1438,
  "\u2581Read": 1439,
  "\u2581taught": 1440,
  "\u2581Acts": 1441,
  "\u2581disease": 1442,
  "ne": 1443,
  "\u2581simulain": 1444,
  "\u2581Does": 1445,
  "\u2581awtoridad": 1446,
  "\u2581malakas": 1447,
  "\u2581Lucas": 1448,
  "\u2581naniniwala": 1449,
  "\u2581totoong": 1450,
  "\u2581interest": 1451,
  "\u2581ipina": 1452,
  "\u2581leave": 1453,
  "\u2581using": 1454,
  "\u2581above": 1455,
  "\u2581nangangailangan": 1456,
  "\u2581false": 1457,
  "\u2581mamatay": 1458,
  "\u2581Times": 1459,
  "\u2581open": 1460,
  "\u2581anim": 1461,
  "\u2581kasamaan": 1462,
  "\u2581maliliit": 1463,
  "\u2581nilalang": 1464,
  "\u2581katapatan": 1465,
  "\u2581maliwanag": 1466,
  "\u2581benefit": 1467,
  "\u2581hanga": 1468,
  "\u2581trust": 1469,
  "\u2581Marami": 1470,
  "\u2581evidence": 1471,
  "\u2581thinking": 1472,
  "\u2581napakarami": 1473,
  "\u258121:": 1474,
  "\u2581lost": 1475,
  "\u2581material": 1476,
  "\u2581kakayahan": 1477,
  "\u2581kautusan": 1478,
  "at": 1479,
  "\u2581Church": 1480,
  "is": 1481,
  "\u2581kilometro": 1482,
  "\u2581Basahin": 1483,
  "\u2581maingat": 1484,
  "O": 1485,
  "\u2581ganiyan": 1486,
  "\u2581Gumising": 1487,
  "\u2581Katoliko": 1488,
  "\u2581serving": 1489,
  "\u2581siyentipiko": 1490,
  "\u2581got": 1491,
  "\u2581Canada": 1492,
  "\u2581side": 1493,
  "\u2581San": 1494,
  "\u2581miles": 1495,
  "\u2581paniniwala": 1496,
  "\u2581organisasyon": 1497,
  "\u2581six": 1498,
  "\u2581Adam": 1499,
  "\u2581prophet": 1500,
  "\u2581pananalita": 1501,
  "\u2581Tunay": 1502,
  "\u25819,": 1503,
  "\u2581Lahat": 1504,
  "\u2581certainly": 1505,
  "\u2581paggawi": 1506,
  "\u2581nitong": 1507,
  "ay": 1508,
  "\u2581Life": 1509,
  "\u2581half": 1510,
  "\u2581karaniwan": 1511,
  "\u2581sinuman": 1512,
  "\u2581bundok": 1513,
  "\u2581sama": 1514,
  "\u2581divine": 1515,
  "\u2581itself": 1516,
  "\u2581II": 1517,
  "\u2581clear": 1518,
  "mpung": 1519,
  "\u2581married": 1520,
  "\u2581ibabaw": 1521,
  "\u2581pamahalaan": 1522,
  "P": 1523,
  "\u2581pahayagan": 1524,
  "\u2581ipinakita": 1525,
  "\u2581talaga": 1526,
  "\u2581Maaari": 1527,
  "\u2581kept": 1528,
  "\u2581kayamanan": 1529,
  "\u2581Totoo": 1530,
  "\u2581Romans": 1531,
  "ta": 1532,
  "\u2581kaisipan": 1533,
  "f": 1534,
  "\u2581gaano": 1535,
  "\u2581sanhi": 1536,
  "\u2581kawalang": 1537,
  "\u2581greater": 1538,
  "\u2581modern": 1539,
  "\u2581likas": 1540,
  "en": 1541,
  "\u2581THE": 1542,
  "\u2581Law": 1543,
  "\u2581fire": 1544,
  "\u2581physical": 1545,
  "\u2581Brother": 1546,
  "\u2581Maging": 1547,
  "\u2581enough": 1548,
  "\u2581principles": 1549,
  "\u2581Africa": 1550,
  "\u2581attitude": 1551,
  "\u25816,": 1552,
  "\u2581pangako": 1553,
  "\u2581nagpapakita": 1554,
  "\u2581Oh": 1555,
  "\u2581based": 1556,
  "\u2581hukbo": 1557,
  "\u2581Consider": 1558,
  "\u2581field": 1559,
  "\u2581matters": 1560,
  "\u2581K": 1561,
  "st": 1562,
  "\u258118.": 1563,
  "\u2581gives": 1564,
  "\u2581See": 1565,
  "\u2581makatutulong": 1566,
  "\u2581born": 1567,
  "\u2581kalayaan": 1568,
  "\u2581act": 1569,
  "\u2581perhaps": 1570,
  "\u2581shows": 1571,
  "\u2581km": 1572,
  "\u2581basta": 1573,
  "D": 1574,
  "\u2581issue": 1575,
  "\u2581milyon": 1576,
  "\u2581sheep": 1577,
  "\u2581allow": 1578,
  "\u2581makapag": 1579,
  "\u2581Juda": 1580,
  "\u2581kulay": 1581,
  "\u2581organization": 1582,
  "\u2581maunawaan": 1583,
  "\u2581India": 1584,
  "\u2581teach": 1585,
  "\u2581Line": 1586,
  "\u2581serious": 1587,
  "\u2581showed": 1588,
  "\u2581anyone": 1589,
  "\u2581yaon": 1590,
  "\u258126": 1591,
  "\u2581Adan": 1592,
  "\u2581madalas": 1593,
  "\u2581Europa": 1594,
  "\u2581lalake": 1595,
  "\u25814,": 1596,
  "\u2581'%": 1597,
  "\u2581whose": 1598,
  "\u2581maling": 1599,
  "\u2581makipag": 1600,
  "\u2581sumusunod": 1601,
  "\u2581nadarama": 1602,
  "\u2581several": 1603,
  "\u2581friend": 1604,
  "\u2581makalangit": 1605,
  "\u00b7": 1606,
  "\u2581pasimula": 1607,
  "\u2581remain": 1608,
  "\u2581ibon": 1609,
  "\u2581Roman": 1610,
  "\u2581mabilis": 1611,
  "\u2581kindness": 1612,
  "\u2581pray": 1613,
  "\u2581lived": 1614,
  "\u2581tagasunod": 1615,
  "de": 1616,
  "\u2581masamang": 1617,
  "\u2581mainam": 1618,
  "\u2581perfect": 1619,
  "\u2581naglilingkod": 1620,
  "ong": 1621,
  "\u2581fully": 1622,
  "\u2581sacrifice": 1623,
  "\u258118:": 1624,
  "\u2581maglingkod": 1625,
  "ness": 1626,
  "\u2581Maliwanag": 1627,
  "\u2581Sapagkat": 1628,
  "\u2581held": 1629,
  "\u2581nangangahulugan": 1630,
  "\u2581niyaong": 1631,
  "\u2581Pictures": 1632,
  "\u2581Will": 1633,
  "\u2581tin": 1634,
  "\u258127": 1635,
  "\u2581strength": 1636,
  "\u2581Baka": 1637,
  "\u2581Tiyak": 1638,
  "\u2581seven": 1639,
  "\u2581effect": 1640,
  "\u2581explains": 1641,
  "hin": 1642,
  "\u2581kombensiyon": 1643,
  "\u2581truly": 1644,
  "\u2581anything": 1645,
  "\u2581hours": 1646,
  "\u2581balakyot": 1647,
  "\u2581tama": 1648,
  "lo": 1649,
  "\u2581Judah": 1650,
  "\u2581pagtuturo": 1651,
  "\u2581understanding": 1652,
  "\u2581happiness": 1653,
  "\u2581manggagawa": 1654,
  "h": 1655,
  "\u2581NG": 1656,
  "\u258160": 1657,
  "\u2581tunguhin": 1658,
  "\u2581everlasting": 1659,
  "bi": 1660,
  "\u25815,": 1661,
  "\u2581evil": 1662,
  "\u2581sinumang": 1663,
  "\u2581kaligayahan": 1664,
  "\u2581explained": 1665,
  "\u2581gayo": 1666,
  "\u2581misyonero": 1667,
  "\u2581thousands": 1668,
  "\u2581kilala": 1669,
  "\u2581deep": 1670,
  "\u2581malalaking": 1671,
  "\u2581rule": 1672,
  "\u2581atas": 1673,
  "\u2581Therefore": 1674,
  "\u2581poor": 1675,
  "\u2581rest": 1676,
  "ya": 1677,
  "\u2581almost": 1678,
  "\u258170": 1679,
  "\u2581Egypt": 1680,
  "\u2581ikalawa": 1681,
  "\u2581glory": 1682,
  "\u2581lipunan": 1683,
  "\u2581dalawa": 1684,
  "\u2581Griego": 1685,
  "\u2581po": 1686,
  "\u2581least": 1687,
  "\u2581Or": 1688,
  "\u2581gawing": 1689,
  "\u2581hold": 1690,
  "\u2581opisyal": 1691,
  "\u2581Joseph": 1692,
  "as": 1693,
  "el": 1694,
  "\u2581nagawa": 1695,
  "\u2581loved": 1696,
  "\u2581materyal": 1697,
  "\u2581millions": 1698,
  "\u2581Alam": 1699,
  "\u2581families": 1700,
  "\u2581Kahon": 1701,
  "\u2581anyos": 1702,
  "\u2581apoy": 1703,
  "\u2581mahal": 1704,
  "\u2581dakilang": 1705,
  "\u2581popular": 1706,
  "\u2581pisikal": 1707,
  "\u2581meaning": 1708,
  "\u2581Jewish": 1709,
  "\u2581Witness": 1710,
  "\u2581tree": 1711,
  "\u2581puno": 1712,
  "\u2581provided": 1713,
  "\u25812,": 1714,
  "\u2581mentioned": 1715,
  "\u2581ari": 1716,
  "\u2581sun": 1717,
  "\u2581normal": 1718,
  "\u2581followers": 1719,
  "\u2581Maria": 1720,
  "5": 1721,
  "\u2581darating": 1722,
  "\u2581American": 1723,
  "You": 1724,
  "\u258116:": 1725,
  "\u2581Iyo": 1726,
  "\u2581resurrection": 1727,
  ".\"": 1728,
  "hambing": 1729,
  "\u2581kita": 1730,
  "\u2581buh\u00e1y": 1731,
  "\u2581Rather": 1732,
  "\u2581tumulong": 1733,
  "\u2581deal": 1734,
  "\u2581matapos": 1735,
  "\u2581kinalaman": 1736,
  "\u2581Re": 1737,
  "\u2581seem": 1738,
  ").": 1739,
  "\u2581Samantala": 1740,
  "\u2581authority": 1741,
  "\u2581punong": 1742,
  "\u2581papel": 1743,
  "\u2581karahasan": 1744,
  "\u2581turned": 1745,
  "B": 1746,
  "\u2581happened": 1747,
  "\u2581flesh": 1748,
  "\u2581War": 1749,
  "\u2581continued": 1750,
  "\u2581forever": 1751,
  "\u2581ini": 1752,
  "\u2581animals": 1753,
  "\u2581air": 1754,
  "\u2581youths": 1755,
  "\u2581pribilehiyo": 1756,
  "ation": 1757,
  "\u2581Most": 1758,
  "\u2581effort": 1759,
  "\u258120:": 1760,
  "\u2581diyos": 1761,
  "\u2581Hebrew": 1762,
  "\u2581binigyan": 1763,
  "\u2581judgment": 1764,
  "\u2581violence": 1765,
  "\u2581working": 1766,
  "\u2581individuals": 1767,
  "\u2581nabubuhay": 1768,
  "\u2581pagsunod": 1769,
  "\u2581myself": 1770,
  "\u2581malinis": 1771,
  "\u2581period": 1772,
  "\u2581spoke": 1773,
  "\u2581visit": 1774,
  "\u2581prophecy": 1775,
  "\u2581pain": 1776,
  "\u2581computer": 1777,
  "\u2581paa": 1778,
  "\u2581nagsimula": 1779,
  "\u2581meeting": 1780,
  "\u2581liham": 1781,
  "\u2581heavens": 1782,
  "\u2581karapatan": 1783,
  "\u2581nalalaman": 1784,
  "\u2581accept": 1785,
  "\u2581alak": 1786,
  "\u258133": 1787,
  "\u2581stated": 1788,
  "\u258137": 1789,
  "\u2581droga": 1790,
  "\u2581mahusay": 1791,
  "ha": 1792,
  "\u2581True": 1793,
  "\u2581remember": 1794,
  "\u2581places": 1795,
  "\u2581Ipinakikita": 1796,
  "\u2581led": 1797,
  "\u2581named": 1798,
  "\u2581kabaitan": 1799,
  "\u2581nawa": 1800,
  "\u2581speaking": 1801,
  "\u2581TV": 1802,
  "\u2581lahi": 1803,
  "\u2581mai": 1804,
  "\u2581La": 1805,
  "\u2581kabanata": 1806,
  "\u2581panig": 1807,
  "\u2581Mary": 1808,
  "\u2581everything": 1809,
  "\u258119.": 1810,
  "\u2581Mag": 1811,
  "M": 1812,
  "\u2581walk": 1813,
  "\u2581London": 1814,
  "\u258120.": 1815,
  "\u2581Buhay": 1816,
  "\u2581\u25aa": 1817,
  "\u2581pumasok": 1818,
  "\u2581voice": 1819,
  "man": 1820,
  "\u2581programa": 1821,
  "\u2581pagtitiwala": 1822,
  "\u2581mukha": 1823,
  "\u2581interes": 1824,
  "\u258132": 1825,
  "\u2581University": 1826,
  "\u2581hearts": 1827,
  "\u2581value": 1828,
  "\u02b9": 1829,
  "\u2581tinanggap": 1830,
  "\u2581madali": 1831,
  "\u2581older": 1832,
  "\u2581birth": 1833,
  "\u2581witness": 1834,
  "\u2581100": 1835,
  "\u2581publikasyon": 1836,
  "\u2581efforts": 1837,
  "\u2581Gilead": 1838,
  "\u2581metro": 1839,
  "\u2581kahanga": 1840,
  "\u2581move": 1841,
  "\u2581nangyayari": 1842,
  "\u2581simple": 1843,
  "\u2581considered": 1844,
  "\u2581apostles": 1845,
  "\u2581daughter": 1846,
  "\u2581letter": 1847,
  "\u258129": 1848,
  "\u2581various": 1849,
  "\u258114,": 1850,
  "\u2581Indeed": 1851,
  "\u2581matatag": 1852,
  "\u2581gumagamit": 1853,
  "\u2581offer": 1854,
  "\u2581pagbibigay": 1855,
  "\u2581pagkakaroon": 1856,
  "\u2581pamamahala": 1857,
  "\u2581Another": 1858,
  "\u2581kamakailan": 1859,
  "\u2581morning": 1860,
  "\u25aa": 1861,
  ",...": 1862,
  "\u2581easy": 1863,
  "\u2581mangha": 1864,
  "\u2581magpakailanman": 1865,
  "\u2581South": 1866,
  "\u2581covenant": 1867,
  "\u2581priests": 1868,
  "\u2581tagapangasiwa": 1869,
  "\u25cf": 1870,
  "\u2581pitong": 1871,
  "\u2581nina": 1872,
  "\u2581wonderful": 1873,
  "\u2581biktima": 1874,
  "\u2581dumalo": 1875,
  "\u2581seek": 1876,
  "\u2581building": 1877,
  "\u2581ideya": 1878,
  "\u2581pera": 1879,
  "\u2581regarding": 1880,
  "\u2581caused": 1881,
  "\u2581thousand": 1882,
  "\u2581paliwanag": 1883,
  "\u2581katarungan": 1884,
  "\u2581mangyayari": 1885,
  "\u2581katao": 1886,
  "z": 1887,
  "\u2581available": 1888,
  "\u2581mapa": 1889,
  "\u2581students": 1890,
  "Kung": 1891,
  "\u2581kapaligiran": 1892,
  "\u2581Asia": 1893,
  "\u2581itaas": 1894,
  "\u2581activity": 1895,
  "\u2581cities": 1896,
  "\u2581inaasahan": 1897,
  "ur": 1898,
  "\u2581Devil": 1899,
  "\u258111,": 1900,
  "\u2581F": 1901,
  "\u2581itinuturin": 1902,
  "\u2581powerful": 1903,
  "\u2581Babylon": 1904,
  "\u2581clean": 1905,
  "\u2581promise": 1906,
  "\u2581Mexico": 1907,
  "\u2581single": 1908,
  "\u2581paningin": 1909,
  "\u2581actually": 1910,
  "\u2581mabuhay": 1911,
  "\u258116,": 1912,
  "\u2581Diyablo": 1913,
  "\u2581tinig": 1914,
  "\u2581lubos": 1915,
  "\u2581English": 1916,
  "\u2581sound": 1917,
  "\u2581spiritually": 1918,
  "\u2581articles": 1919,
  "\u2581Hebrews": 1920,
  "\u2581doubt": 1921,
  "\u2581Gayundin": 1922,
  "\u2581bibig": 1923,
  "\u2581pahayag": 1924,
  "\u25817,": 1925,
  "\u2581gain": 1926,
  "\u2581usually": 1927,
  "\u2581dekada": 1928,
  "\u2581Una": 1929,
  "\u2581Mas": 1930,
  "\u2581tried": 1931,
  "\u2581worldwide": 1932,
  "\u2581sisters": 1933,
  "\u2581interesado": 1934,
  "\u2581kaluwalhatian": 1935,
  "\u2581events": 1936,
  "\u2581un": 1937,
  "\u2581pagpapahalaga": 1938,
  "able": 1939,
  "\u2581pagkabuhay": 1940,
  "\u2581qualities": 1941,
  "\u2581malinaw": 1942,
  "\u258121.": 1943,
  "\u2581unti": 1944,
  "\u2581legal": 1945,
  "\u2581bumalik": 1946,
  "\u258128": 1947,
  "\u2581sexual": 1948,
  "\u2581Would": 1949,
  "\u2581class": 1950,
  "\u2581served": 1951,
  "\u2581ground": 1952,
  "\u2581parts": 1953,
  "\u2581throughout": 1954,
  "\u2581circumstances": 1955,
  "\u2581Talaba": 1956,
  "\u2581door": 1957,
  "\u2581gift": 1958,
  "\u2581text": 1959,
  "\u2581c": 1960,
  "\u2581husto": 1961,
  "ch": 1962,
  "\u2581kaligtasan": 1963,
  "\u2581source": 1964,
  "\u2581Europe": 1965,
  "\u2581cut": 1966,
  "\u2581pantanging": 1967,
  "\u2581Ezekiel": 1968,
  "\u2581getting": 1969,
  "\u2581paggalang": 1970,
  "\u2581isipin": 1971,
  "\u2581inspired": 1972,
  "\u2581katapusan": 1973,
  "\u2581matanda": 1974,
  "\u2581re": 1975,
  "\u2581nakatira": 1976,
  "\u2581hakbang": 1977,
  "\u2581short": 1978,
  "un": 1979,
  "\u2581indeed": 1980,
  "\u2581Great": 1981,
  "\u2581lands": 1982,
  "\u2581kayang": 1983,
  "\u2581political": 1984,
  "\u2581Brazil": 1985,
  "\u2581state": 1986,
  "\u2581books": 1987,
  "\u2581priest": 1988,
  "\u2581described": 1989,
  "\u2581everyone": 1990,
  "\u2581nararapat": 1991,
  "\u2581kaloob": 1992,
  "\u2581hundred": 1993,
  "\u2581newspaper": 1994,
  "\u2581anger": 1995,
  "\u2581changed": 1996,
  "\u2581kailan": 1997,
  "\u2581patotoo": 1998,
  "\u2581branch": 1999,
  "\u2581meet": 2000,
  "\u2581social": 2001,
  "\u2581Ko": 2002,
  "\u2581congregations": 2003,
  "\u2581write": 2004,
  "\u258110,": 2005,
  "\u2581edyer": 2006,
  "\u2581please": 2007,
  "\u2581D": 2008,
  "\u2581centuries": 2009,
  "\u2581kotse": 2010,
  "\u2581Ikaw": 2011,
  "\u2581reported": 2012,
  "Hindi": 2013,
  "\u2581musika": 2014,
  "\u2581freedom": 2015,
  "\u2581masusumpungan": 2016,
  "\u2581published": 2017,
  "\u2581takes": 2018,
  "\u2581L": 2019,
  "\u2581else": 2020,
  "\u2581proved": 2021,
  "\u2581built": 2022,
  "\u2581magbigay": 2023,
  "\u2581sex": 2024,
  "\u2581subject": 2025,
  "\u2581Pagka": 2026,
  "\u2581servant": 2027,
  "\u2581recent": 2028,
  "\u2581medical": 2029,
  "R": 2030,
  "\u2581start": 2031,
  "\u2581Like": 2032,
  "\u2581Santiago": 2033,
  "\u2581kasali": 2034,
  "\u2581matibay": 2035,
  "\u2581tanggapin": 2036,
  "\u2581mabubuti": 2037,
  "\u2581seems": 2038,
  "\u2581idea": 2039,
  "\u2581listen": 2040,
  "\u2581Jose": 2041,
  "\u2581paglalakbay": 2042,
  "\u2581Japan": 2043,
  "L": 2044,
  "\u2581Palibhasa": 2045,
  "\u2581mapanganib": 2046,
  "\u2581Did": 2047,
  "\u2581Marahil": 2048,
  "\u2581carry": 2049,
  "\u2581former": 2050,
  "il": 2051,
  "pi": 2052,
  "\u2581job": 2053,
  "\u2581ability": 2054,
  "\u2581influence": 2055,
  "\u2581kapaki": 2056,
  "\u2581pagsulong": 2057,
  "\u2581month": 2058,
  "\u2581returned": 2059,
  "\u2581slave": 2060,
  "da": 2061,
  "\u2581kasalukuyang": 2062,
  "\u2581comfort": 2063,
  "\u2581accepted": 2064,
  "\u258122:": 2065,
  "\u2581Maylalang": 2066,
  "\u2581daily": 2067,
  "\u2581makapangyarihan": 2068,
  "\u2581nasumpungan": 2069,
  "\u2581ministro": 2070,
  "\u2581Romano": 2071,
  "\u2581Bantayan": 2072,
  "\u2581blessing": 2073,
  "\u2581force": 2074,
  "eth": 2075,
  "\u2581papaano": 2076,
  "\u2581tutulong": 2077,
  "\u2581ginto": 2078,
  "\u2581met": 2079,
  "\u2581build": 2080,
  "4": 2081,
  "\u2581added": 2082,
  "\u2581impluwensiya": 2083,
  "\u2581role": 2084,
  "\u2581mouth": 2085,
  "\u2581created": 2086,
  "\u2581Hence": 2087,
  "\u2581kahoy": 2088,
  "\u2581behind": 2089,
  "\u2581palagay": 2090,
  "\u2581decision": 2091,
  "\u2581opportunity": 2092,
  "\u2581entire": 2093,
  "\u2581reach": 2094,
  "\u2581hamon": 2095,
  "\u2581magasin": 2096,
  "\u2581M": 2097,
  "\u2581line": 2098,
  "\u2581vital": 2099,
  "\u2581fall": 2100,
  "mi": 2101,
  "\u2581office": 2102,
  "\u2581prove": 2103,
  "\u2581magkagayo": 2104,
  "\u2581areas": 2105,
  "\u2581car": 2106,
  "\u2581answers": 2107,
  "\u2581Just": 2108,
  "\u2581payunir": 2109,
  "\u2581position": 2110,
  "\u2581tinawag": 2111,
  "\u2581mangyari": 2112,
  "\u2581Kautusan": 2113,
  "\u2581pagkilos": 2114,
  "\u2581pass": 2115,
  "\u2581First": 2116,
  "\u2581pages": 2117,
  "\u2581pressure": 2118,
  "\u2581taimtim": 2119,
  "\u2581grow": 2120,
  "\u2581minister": 2121,
  "\u2581pasiya": 2122,
  "\u2581taun": 2123,
  "\u2581beginning": 2124,
  "\u2581offered": 2125,
  "\u2581patnubay": 2126,
  "\u2581mental": 2127,
  "\u2581couple": 2128,
  "\u2581answered": 2129,
  "\u2581destruction": 2130,
  "\u2581stop": 2131,
  "\u2581anuman": 2132,
  "\u2581beautiful": 2133,
  "\u2581bigyan": 2134,
  "ia": 2135,
  "\u2581mapag": 2136,
  "\u2581cases": 2137,
  "\u2581p": 2138,
  "\u2581music": 2139,
  "\u2581tagumpay": 2140,
  "\u2581tanda": 2141,
  "\u2581prayers": 2142,
  "\u2581week": 2143,
  "\u2581ayaw": 2144,
  "w": 2145,
  "\u2581libu": 2146,
  "\u2581results": 2147,
  "\u2581learning": 2148,
  "\u2581room": 2149,
  "\u2581sometimes": 2150,
  "co": 2151,
  "\u2581rich": 2152,
  "\u2581pamamaraan": 2153,
  "\u2581confidence": 2154,
  "\u2581tipan": 2155,
  "\u2581lider": 2156,
  "\u2581sins": 2157,
  "\u2581Iyan": 2158,
  "do": 2159,
  "\u2581Amerika": 2160,
  "\u258112,": 2161,
  "\u2581decided": 2162,
  "ll": 2163,
  "me": 2164,
  "\u2581beses": 2165,
  "\u2581third": 2166,
  "\u2581malubha": 2167,
  "\u2581narito": 2168,
  "\u2581advice": 2169,
  "\u2581kaarawan": 2170,
  "\u2581tumutulong": 2171,
  "\u2581Instead": 2172,
  "\u2581aktuwal": 2173,
  "\u2581tanggapan": 2174,
  "\u2581kopya": 2175,
  "\u2581larangan": 2176,
  "pe": 2177,
  "\u2581helps": 2178,
  "\u2581sign": 2179,
  "\u2581activities": 2180,
  "\u2581kaayusan": 2181,
  "\u2581punungkahoy": 2182,
  "\u2581killed": 2183,
  "\u2581kakayahang": 2184,
  "yo": 2185,
  "\u2581standards": 2186,
  "\u2581isyu": 2187,
  "\u2581gamot": 2188,
  "\u2581honor": 2189,
  "\u2581pandaigdig": 2190,
  "6": 2191,
  "\u2581necessary": 2192,
  "\u2581manunulat": 2193,
  "\u2581kawan": 2194,
  "\u2581complete": 2195,
  "\u2581binhi": 2196,
  "\u2581Jeremias": 2197,
  "\u2581clearly": 2198,
  "\u2581changes": 2199,
  "\u2581hath": 2200,
  "\u2581gusali": 2201,
  "\u2581increase": 2202,
  "\u2581Jeremiah": 2203,
  "ga": 2204,
  "\u2581nagsimulang": 2205,
  "\u2581pagsusuri": 2206,
  "\u2581either": 2207,
  "\u2581More": 2208,
  "\u2581angels": 2209,
  "\u2581instance": 2210,
  "\u2581manatiling": 2211,
  "\u2581pagbabasa": 2212,
  "\u2581develop": 2213,
  "\u2581willing": 2214,
  "\u2581tinapay": 2215,
  "\u2581matalino": 2216,
  "\u2581awit": 2217,
  "\u2581pay": 2218,
  "hi": 2219,
  "\u2581W": 2220,
  "\u2581affect": 2221,
  "\u2581ugnayan": 2222,
  "\u2581Efeso": 2223,
  "\u2581School": 2224,
  "\u2581persons": 2225,
  "\u2581raised": 2226,
  "\u2581antas": 2227,
  "\u2581apply": 2228,
  "\u2581major": 2229,
  "\u2581Mark": 2230,
  "\u2581Ehipto": 2231,
  "\u2581drink": 2232,
  "\u2581practice": 2233,
  "\u2581timbang": 2234,
  "\u2581promises": 2235,
  "ti": 2236,
  "\u2581concern": 2237,
  "\u2581program": 2238,
  "\u2581Digmaan": 2239,
  "\u2581Nevertheless": 2240,
  "\u25817]": 2241,
  "\u2581Noe": 2242,
  "\u2581appointed": 2243,
  "\u2581shown": 2244,
  "\u2581kamangha": 2245,
  "\u2581balat": 2246,
  "\u2581wonder": 2247,
  "\u2581pagdating": 2248,
  "Tungkol": 2249,
  "\u2581bear": 2250,
  "\u2581matagal": 2251,
  "\u2581followed": 2252,
  "\u2581Tayo": 2253,
  "\u2581laws": 2254,
  "\u2581godly": 2255,
  "\u2581kahilingan": 2256,
  "\u2581thoughts": 2257,
  "\u2581pagkakamali": 2258,
  "ce": 2259,
  "\u2581Alemanya": 2260,
  "\u2581appropriate": 2261,
  "\u2581damit": 2262,
  "\u2581earlier": 2263,
  "\u2581isla": 2264,
  "\u258123]": 2265,
  "\u258122.": 2266,
  "\u2581Still": 2267,
  "\u2581gold": 2268,
  "\u2581girl": 2269,
  "\u2581stay": 2270,
  "\u258123.": 2271,
  "\u2581lokal": 2272,
  "\u2581pulutong": 2273,
  "\u2581nguni": 2274,
  "\u2581Germany": 2275,
  "\u2581pinahirang": 2276,
  "\u2581dami": 2277,
  "walang": 2278,
  "\u2581kinabukasan": 2279,
  "\u2581praise": 2280,
  "\u2581quickly": 2281,
  "\u2581Compare": 2282,
  "\u2581prison": 2283,
  "\u2581Nations": 2284,
  "\u2581natutuhan": 2285,
  "\u2581parent": 2286,
  "\u2581sandali": 2287,
  "\u2581klase": 2288,
  "\u2581Mayroon": 2289,
  "\u2581suffer": 2290,
  "\u258113,": 2291,
  "\u2581talata": 2292,
  "\u2581appreciate": 2293,
  "\u2581baptism": 2294,
  "\u2581Have": 2295,
  "\u2581umiiral": 2296,
  "\u2581Later": 2297,
  "\u2581examples": 2298,
  "\u2581mahabang": 2299,
  "\u2581nakatulong": 2300,
  "\u2581convention": 2301,
  "\u2581lack": 2302,
  "\u2581sundin": 2303,
  "ko": 2304,
  "\u2581mali": 2305,
  "\u2581lot": 2306,
  "\u2581trees": 2307,
  "\u2581Narito": 2308,
  "\u2581kapakanan": 2309,
  "\u2581noted": 2310,
  "\u2581education": 2311,
  "gkakristiyanuhan": 2312,
  "\u2581palibot": 2313,
  "\u258117]": 2314,
  "\u2581privilege": 2315,
  "\u2581reasons": 2316,
  "\u2581Christendom": 2317,
  "\u2581pagkakaiba": 2318,
  "\u2581silid": 2319,
  "God": 2320,
  "\u2581Scriptural": 2321,
  "\u2581bawa": 2322,
  "\u2581ilog": 2323,
  "\u2581business": 2324,
  "\u2581maintain": 2325,
  "\u2581kirot": 2326,
  "\u2581passed": 2327,
  "\u2581youth": 2328,
  "\u2581Moreover": 2329,
  "\u2581eye": 2330,
  "\u2581looking": 2331,
  "\u2581basahin": 2332,
  "\u2581dinala": 2333,
  "\u2581filled": 2334,
  "\u2581Noah": 2335,
  "\u2581experienced": 2336,
  "\u2581Dakila": 2337,
  "\u2581appreciation": 2338,
  "It": 2339,
  "\u2581salvation": 2340,
  "\u2581kumilos": 2341,
  "\u2581Kami": 2342,
  "\u2581teksto": 2343,
  "\u2581exercise": 2344,
  "\u2581nayon": 2345,
  "\u2581treatment": 2346,
  "\u2581kinasihan": 2347,
  "\u2581fruit": 2348,
  "\u2581Ask": 2349,
  "K": 2350,
  "\u2581sight": 2351,
  "\u2581Health": 2352,
  "\u2581tumpak": 2353,
  "\u2581umalis": 2354,
  "\u2581Eva": 2355,
  "\u2581action": 2356,
  "\u2581huwad": 2357,
  "\u2581becoming": 2358,
  "\u2581dati": 2359,
  "\u2581gamit": 2360,
  "\u2581hour": 2361,
  "\u2581'?": 2362,
  "\u2581budhi": 2363,
  "\u2581Talagang": 2364,
  "\u2581Though": 2365,
  "\u2581literal": 2366,
  "\u2581makilala": 2367,
  "\u2581responsibility": 2368,
  "\u2581kina": 2369,
  "\u2581nagsasalita": 2370,
  "\u2581creation": 2371,
  "\u2581gumamit": 2372,
  "\u2581iniisip": 2373,
  "\u2581pala": 2374,
  "\u2581aralan": 2375,
  "\u2581pangangalaga": 2376,
  "\u2581pinuno": 2377,
  "\u2581teachings": 2378,
  "\u258124.": 2379,
  "\u2581kadalasang": 2380,
  "\u2581masasamang": 2381,
  "3": 2382,
  "\u2581langis": 2383,
  "We": 2384,
  "\u2581diwa": 2385,
  "\u2581training": 2386,
  "mo": 2387,
  "\u2581trying": 2388,
  "ar": 2389,
  "\u2581Pina": 2390,
  "\u2581conditions": 2391,
  "\u2581dulo": 2392,
  "\u2581babala": 2393,
  "\u2581nakilala": 2394,
  "\u2581natuklasan": 2395,
  "\u2581proper": 2396,
  "\u2581chapter": 2397,
  "\u2581crowd": 2398,
  "\u2581kings": 2399,
  "\u2581outside": 2400,
  "\u2581uusig": 2401,
  "\u2581National": 2402,
  "\u2581mananaliksik": 2403,
  "\u2581record": 2404,
  "\u2581kilalang": 2405,
  "\u2581galing": 2406,
  "\u2581pinili": 2407,
  "\u2581sulat": 2408,
  "\u2581basis": 2409,
  "\u2581promised": 2410,
  "est": 2411,
  "\u2581direction": 2412,
  "\u2581matagumpay": 2413,
  "\u2581developed": 2414,
  "\u2581regard": 2415,
  "\u2581attend": 2416,
  "be": 2417,
  "\u258115]": 2418,
  "\u2581include": 2419,
  "\u2581iisang": 2420,
  "2": 2421,
  "\u2581leaders": 2422,
  "less": 2423,
  "ry": 2424,
  "\u2581kasiyahan": 2425,
  "\u2581maligaya": 2426,
  "\u2581beyond": 2427,
  "\u2581St": 2428,
  "\u2581pasyente": 2429,
  "\u258134": 2430,
  "\u2581foretold": 2431,
  "\u2581oil": 2432,
  "\u2581speech": 2433,
  "\u2581laking": 2434,
  "ter": 2435,
  "\u2581determined": 2436,
  "\u2581individual": 2437,
  "\u2581precious": 2438,
  "\u2581City": 2439,
  "\u2581ganap": 2440,
  "\u2581blessings": 2441,
  "\u2581lumabas": 2442,
  "\u2581accurate": 2443,
  "\u2581feeling": 2444,
  "\u2581unawa": 2445,
  "\u2581About": 2446,
  "\u2581Latin": 2447,
  "\u2581katuparan": 2448,
  "\u2581justice": 2449,
  "\u2581kabuluhan": 2450,
  "pag": 2451,
  "\u2581Before": 2452,
  "\u2581addition": 2453,
  "\u2581nagpakita": 2454,
  "\u2581revealed": 2455,
  "\u2581per": 2456,
  "\u2581sleep": 2457,
  "\u2581interested": 2458,
  "\u2581baby": 2459,
  "\u2581umaga": 2460,
  "\u2581allowed": 2461,
  "\u2581pinsala": 2462,
  "\u2581realize": 2463,
  "\u2581recorded": 2464,
  "\u2581conscience": 2465,
  "\u2581kawalan": 2466,
  "\u2581Where": 2467,
  "\u2581pagkamatay": 2468,
  "\u2581stress": 2469,
  "\u2581offering": 2470,
  "ul": 2471,
  "\u2581happen": 2472,
  "ku": 2473,
  "\u2581preach": 2474,
  "\u2581krimen": 2475,
  "\u2581napakahalaga": 2476,
  "\u2581kani": 2477,
  "\u2581begin": 2478,
  "\u2581population": 2479,
  "\u2581Others": 2480,
  "\u2581ready": 2481,
  "\u2581drugs": 2482,
  "\u2581literature": 2483,
  "\u2581produce": 2484,
  "\u2581handa": 2485,
  "\u2581pagkakaisa": 2486,
  "\u2581quite": 2487,
  "\u2581society": 2488,
  "\u2581helping": 2489,
  "\u2581Isaac": 2490,
  "\u2581spent": 2491,
  "\u2581mahahalagang": 2492,
  "\u2581Ba": 2493,
  "\u2581general": 2494,
  "\u2581kongregasyong": 2495,
  "Jehovah": 2496,
  "\u2581condition": 2497,
  "\u2581occasion": 2498,
  "\u2581salig": 2499,
  "\u2581white": 2500,
  "\u2581homes": 2501,
  "\u2581Ni": 2502,
  "ca": 2503,
  "\u2581Children": 2504,
  "\u2581Holy": 2505,
  "\u2581harmony": 2506,
  "\u2581kamag": 2507,
  "9": 2508,
  "\u2581abala": 2509,
  "\u2581spread": 2510,
  "\u2581yugto": 2511,
  "\u258117,": 2512,
  "\u2581nature": 2513,
  "\u2581regularly": 2514,
  "\u2581Credit": 2515,
  "\u2581karapat": 2516,
  "\u2581protect": 2517,
  "\u2581Well": 2518,
  "\u2581naninirahan": 2519,
  "\u2581England": 2520,
  "\u2581integrity": 2521,
  "\u258180": 2522,
  "\u2581Babilonya": 2523,
  "\u2581barko": 2524,
  "\u2581ibinibigay": 2525,
  "\u2581napa": 2526,
  "\u2581ospital": 2527,
  "\u2581labanan": 2528,
  "\u2581risk": 2529,
  "\u258119,": 2530,
  "\u2581kapighatian": 2531,
  "\u2581bread": 2532,
  "\u2581modernong": 2533,
  "\u2581puwersa": 2534,
  "\u2581mayroong": 2535,
  "\u2581practical": 2536,
  "\u2581enemies": 2537,
  "\u2581pakikitungo": 2538,
  "\u2581selula": 2539,
  "\u2581earthly": 2540,
  "\u2581posibleng": 2541,
  "\u2581pagkakataong": 2542,
  "\u2581milyun": 2543,
  "\u2581nearly": 2544,
  "\u2581halaman": 2545,
  "\u2581mahigpit": 2546,
  "\u2581France": 2547,
  "\u2581languages": 2548,
  "so": 2549,
  "\u2581greatest": 2550,
  "\u2581e": 2551,
  "se": 2552,
  "\u2581edukasyon": 2553,
  "\u2581draw": 2554,
  "\u2581sambahayan": 2555,
  "po": 2556,
  "\u2581presence": 2557,
  "\u2581positive": 2558,
  "\u2581knows": 2559,
  "\u2581pagsasanay": 2560,
  "\u2581worked": 2561,
  "os": 2562,
  "\u2581Internet": 2563,
  "\u2581doctor": 2564,
  "\u2581spend": 2565,
  "\u2581related": 2566,
  "\u2581tells": 2567,
  "\u2581enjoyed": 2568,
  "\u2581dumalaw": 2569,
  "\u2581tabak": 2570,
  "\u2581loyal": 2571,
  "\u2581arrived": 2572,
  "\u2581established": 2573,
  "\u2581workers": 2574,
  "im": 2575,
  "\u2581ipakita": 2576,
  "\u2581alinlangan": 2577,
  "\u2581notes": 2578,
  "\u2581paraiso": 2579,
  "\u2581fulfillment": 2580,
  "\u2581destroyed": 2581,
  "\u2581emotional": 2582,
  "\u2581German": 2583,
  "um": 2584,
  "\u2581Perhaps": 2585,
  "\u2581paradise": 2586,
  "\u2581kaugalian": 2587,
  "\u2581siyensiya": 2588,
  "vi": 2589,
  "\u2581Timog": 2590,
  "\u2581pari": 2591,
  "\u2581species": 2592,
  "\u2581Kabataan": 2593,
  "\u2581Man": 2594,
  "\u2581yourselves": 2595,
  "\u2581Also": 2596,
  "\u2581groups": 2597,
  "\u2581naroroon": 2598,
  "\u2581pangkat": 2599,
  "\u2581eventually": 2600,
  "\u2581matuto": 2601,
  "\u2581fish": 2602,
  "\u2581libo": 2603,
  "\u2581narinig": 2604,
  "H": 2605,
  "\u2581date": 2606,
  "\u2581encouraged": 2607,
  "he": 2608,
  "\u2581kagubatan": 2609,
  "\u2581napaka": 2610,
  "\u2581studies": 2611,
  "\u2581Cred": 2612,
  "\u2581Pandaigdig": 2613,
  "\u2581handog": 2614,
  "\u2581walking": 2615,
  "\u2581spoken": 2616,
  "\u2581alive": 2617,
  "\u2581huminto": 2618,
  "\u2581Kayo": 2619,
  "\u2581believers": 2620,
  "\u2581growing": 2621,
  "\u2581naglalakbay": 2622,
  "\u2581completely": 2623,
  "\u2581member": 2624,
  "\u2581break": 2625,
  "\u258126]": 2626,
  "\u2581mananamba": 2627,
  "\u2581Aking": 2628,
  "\u2581Atin": 2629,
  "\u2581success": 2630,
  "\u2581J": 2631,
  "\u2581hain": 2632,
  "\u2581nagpapa": 2633,
  "\u2581utak": 2634,
  "\u2581contact": 2635,
  "\u2581sasabihin": 2636,
  "\u2581handang": 2637,
  "If": 2638,
  "\u2581ransom": 2639,
  "\u2581security": 2640,
  "\u2581finally": 2641,
  "\u2581binabanggit": 2642,
  "\u2581magsalita": 2643,
  "\u2581masasabi": 2644,
  "ru": 2645,
  "\u2581alisin": 2646,
  "\u2581asang": 2647,
  "\u2581missionary": 2648,
  "\u2581biglang": 2649,
  "\u2581sick": 2650,
  "\u2581wine": 2651,
  "\u2581bahala": 2652,
  "\u2581isda": 2653,
  "\u2581punto": 2654,
  "\u2581studying": 2655,
  "\u2581test": 2656,
  "\u2581dumarating": 2657,
  "\u2581Mangyari": 2658,
  "\u2581believed": 2659,
  "\u2581wants": 2660,
  "\u2581ligtas": 2661,
  "\u2581pagtatayo": 2662,
  "\u2581play": 2663,
  "unang": 2664,
  "\u258190": 2665,
  "\u2581concerning": 2666,
  "\u2581De": 2667,
  "\u2581malayo": 2668,
  "\u2581populasyon": 2669,
  "ton": 2670,
  "\u2581commanded": 2671,
  "\u2581scientists": 2672,
  "NG": 2673,
  "\u2581big": 2674,
  "\u2581napakalaki": 2675,
  "\u2581blessed": 2676,
  "\u2581literatura": 2677,
  "\u2581bulay": 2678,
  "\u2581aktibo": 2679,
  "\u2581praktikal": 2680,
  "tu": 2681,
  "\u2581original": 2682,
  "\u2581challenge": 2683,
  "\u2581carried": 2684,
  "\u2581prepared": 2685,
  "\u2581N": 2686,
  "\u2581quality": 2687,
  "\u2581tinutukoy": 2688,
  "ion": 2689,
  "\u2581oo": 2690,
  "\u2581although": 2691,
  "\u2581seemed": 2692,
  "\u2581gods": 2693,
  "\u2581negosyo": 2694,
  "\u258145": 2695,
  "\u2581discipline": 2696,
  "\u258125]": 2697,
  "\u2581nakapag": 2698,
  "\u2581town": 2699,
  "\u2581Young": 2700,
  "In": 2701,
  "\u2581Eve": 2702,
  "\u2581term": 2703,
  "\u2581mamamatay": 2704,
  "wa": 2705,
  "ad": 2706,
  "\u2581goes": 2707,
  "\u2581psalmist": 2708,
  "\u2581Joshua": 2709,
  "\u2581provides": 2710,
  "\u2581teacher": 2711,
  "\u2581malaya": 2712,
  "\u2581inside": 2713,
  "\u2581kumain": 2714,
  "\u2581namamatay": 2715,
  "\u2581decisions": 2716,
  "\u2581opened": 2717,
  "\u2581calls": 2718,
  "\u2581mountain": 2719,
  "\u25819]": 2720,
  "\u2581invited": 2721,
  "\u2581save": 2722,
  "\u2581final": 2723,
  "\u2581showing": 2724,
  "\u2581choose": 2725,
  "\u2581inilagay": 2726,
  "\u2581African": 2727,
  "\u2581address": 2728,
  "\u2581angel": 2729,
  "\u2581animal": 2730,
  "\u2581kinakailangang": 2731,
  "\u2581UN": 2732,
  "\u2581katibayan": 2733,
  "\u2581process": 2734,
  "\u2581acts": 2735,
  "\u2581causes": 2736,
  "\u2581imitate": 2737,
  "\u2581salmista": 2738,
  "\u2581beliefs": 2739,
  "\u2581ingat": 2740,
  "\u2581research": 2741,
  "\u2581Brooklyn": 2742,
  "\u2581inaakala": 2743,
  "\u2581seeking": 2744,
  "ngangahulugang": 2745,
  "\u2581expect": 2746,
  "\u2581seed": 2747,
  "\u2581Soon": 2748,
  "\u258125.": 2749,
  "\u258135": 2750,
  "\u2581loss": 2751,
  "\u2581patient": 2752,
  "\u2581warning": 2753,
  "\u2581gone": 2754,
  "\u2581ipa": 2755,
  "\u2581nakaraang": 2756,
  "\u2581iwasan": 2757,
  "\u2581mercy": 2758,
  "\u2581respond": 2759,
  "\u2581nagkasala": 2760,
  "\u2581pantubos": 2761,
  "\u2581express": 2762,
  "\u2581weeks": 2763,
  "\u2581court": 2764,
  "\u2581Samakatuwid": 2765,
  "\u2581fight": 2766,
  "\u2581pusong": 2767,
  "\u2581diyan": 2768,
  "\u2581waters": 2769,
  "bu": 2770,
  "\u2581Gusto": 2771,
  "\u2581abuse": 2772,
  "\u2581nakikipag": 2773,
  "\u2581matututuhan": 2774,
  "\u2581gobyerno": 2775,
  "\u2581International": 2776,
  "id": 2777,
  "\u2581immediately": 2778,
  "go": 2779,
  "\u2581Daigdig": 2780,
  "\u2581itinuturo": 2781,
  "\u2581pinakamalaki": 2782,
  "\u2581hangganan": 2783,
  "\u2581sangkap": 2784,
  "\u2581Love": 2785,
  "ting": 2786,
  "\u2581altar": 2787,
  "\u2581Higit": 2788,
  "\u2581command": 2789,
  "\u2581kumuha": 2790,
  "Huwag": 2791,
  "\u2581haba": 2792,
  "\u258118]": 2793,
  "\u2581Sabi": 2794,
  "\u2581pagmamahal": 2795,
  "\u2581200": 2796,
  "son": 2797,
  "\u2581Christianity": 2798,
  "\u2581Nguni": 2799,
  "\u2581observed": 2800,
  "\u2581benefits": 2801,
  "\u2581type": 2802,
  "\u2581Two": 2803,
  "\u2581Each": 2804,
  "\u2581mamamayan": 2805,
  "\u2581drug": 2806,
  "\u2581orihinal": 2807,
  "N": 2808,
  "\u258120,": 2809,
  "\u2581puwede": 2810,
  "\u2581uusap": 2811,
  "\u2581personality": 2812,
  "\u2581saka": 2813,
  "\u2581fell": 2814,
  "\u2581pagdurusa": 2815,
  "\u2581Error": 2816,
  "\u2581humingi": 2817,
  "\u2581virus": 2818,
  "\u2581Rome": 2819,
  "\u2581pastol": 2820,
  "\u2581fulfilled": 2821,
  "\u2581sword": 2822,
  "\u2581America": 2823,
  "\u2581posible": 2824,
  "\u2581standing": 2825,
  "\u2581ilustrasyon": 2826,
  "Ma": 2827,
  "\u2581mahihirap": 2828,
  "\u2581kuwento": 2829,
  "\u2581boy": 2830,
  "\u2581tumugon": 2831,
  "\u2581French": 2832,
  "\u2581Nazi": 2833,
  "\u2581expression": 2834,
  "\u2581usapan": 2835,
  "\u2581whatever": 2836,
  "\u2581Time": 2837,
  "\u2581front": 2838,
  "\u2581prayed": 2839,
  "\u2581recently": 2840,
  "\u2581suffered": 2841,
  "\u2581simula": 2842,
  "\u2581looked": 2843,
  "\u2581pinagmulan": 2844,
  "rb": 2845,
  "\u2581eight": 2846,
  "\u2581seksuwal": 2847,
  "\u2581kaunting": 2848,
  "\u2581required": 2849,
  "\u2581bilangguan": 2850,
  "\u258110]": 2851,
  "\u258124,": 2852,
  "\u2581due": 2853,
  "\u2581Only": 2854,
  "\u2581kill": 2855,
  "\u2581key": 2856,
  "\u2581traveling": 2857,
  "\u2581protection": 2858,
  "\u2581iisa": 2859,
  "\u2581nadama": 2860,
  "\u2581keeping": 2861,
  "\u2581knowing": 2862,
  "\u2581naiiba": 2863,
  "\u2581favor": 2864,
  "\u2581send": 2865,
  "\u2581Ingles": 2866,
  "\u2581interests": 2867,
  "\u2581suriin": 2868,
  "\u2581karamdaman": 2869,
  "\u2581Ruth": 2870,
  "\u2581behavior": 2871,
  "\u2581inihula": 2872,
  "\u2581laki": 2873,
  "\u2581paggamot": 2874,
  "\u2581picture": 2875,
  "ism": 2876,
  "\u2581eating": 2877,
  "\u2581obey": 2878,
  "\u2581Her": 2879,
  "\u2581Over": 2880,
  "\u2581adds": 2881,
  "\u2581mate": 2882,
  "\u2581pinagmumulan": 2883,
  "\u2581Pransiya": 2884,
  "\u2581forward": 2885,
  "\u2581Here": 2886,
  "\u2581buto": 2887,
  "\u2581makinig": 2888,
  "\u2581particularly": 2889,
  "\u2581publication": 2890,
  "\u2581watch": 2891,
  "\u258129.": 2892,
  "\u2581MGA": 2893,
  "\u2581danger": 2894,
  "\u2581firm": 2895,
  "\u2581Silangan": 2896,
  "\u2581minuto": 2897,
  "\u2581dala": 2898,
  "\u2581tumutukoy": 2899,
  "\u2581gana": 2900,
  "\u2581mabisa": 2901,
  "\u2581Ephesians": 2902,
  "\u2581assignment": 2903,
  "\u2581lagi": 2904,
  "ment": 2905,
  "pananampalataya": 2906,
  "\u2581Me": 2907,
  "\u2581Minsan": 2908,
  "\u2581wives": 2909,
  "\u2581kultura": 2910,
  "\u2581Mesiyas": 2911,
  "\u2581bumaba": 2912,
  "\u2581expressed": 2913,
  "\u2581matapat": 2914,
  "\u2581nagtatrabaho": 2915,
  "\u2581pangitain": 2916,
  "8": 2917,
  "\u2581explain": 2918,
  "\u2581Ganiyan": 2919,
  "\u2581actions": 2920,
  "\u2581inilalarawan": 2921,
  "\u2581relief": 2922,
  "\u2581sekso": 2923,
  "\u258118,": 2924,
  "\u2581Aaron": 2925,
  "\u2581News": 2926,
  "\u2581alaala": 2927,
  "\u2581Gayon": 2928,
  "\u2581Paradise": 2929,
  "\u2581choice": 2930,
  "\u2581progress": 2931,
  "\u2581authorities": 2932,
  "\u2581makatuwiran": 2933,
  "\u2581meant": 2934,
  "\u2581bukod": 2935,
  "\u2581increased": 2936,
  "\u2581pu": 2937,
  "\u2581Malamang": 2938,
  "\u2581failed": 2939,
  "\u2581Talaga": 2940,
  "ho": 2941,
  "\u2581Book": 2942,
  "\u2581shal": 2943,
  "\u2581birds": 2944,
  "\u2581series": 2945,
  "ulad": 2946,
  "\u2581direksiyon": 2947,
  "\u2581sinisikap": 2948,
  "\u2581appear": 2949,
  "\u2581basic": 2950,
  "\u2581init": 2951,
  "\u2581European": 2952,
  "\u2581police": 2953,
  "\u2581Russia": 2954,
  "\u2581kinakailangan": 2955,
  "\u2581El": 2956,
  "\u2581pambihirang": 2957,
  "\u2581tirahan": 2958,
  "\u2581declared": 2959,
  "\u2581instead": 2960,
  "\u2581ulan": 2961,
  "\u2581Ipina": 2962,
  "\u2581kinailangan": 2963,
  "\u2581run": 2964,
  "\u2581teritoryo": 2965,
  "\u2581writing": 2966,
  "\u2581Keep": 2967,
  "\u2581flock": 2968,
  "\u2581gas": 2969,
  "\u2581maikli": 2970,
  "\u2581Naka": 2971,
  "\u2581Its": 2972,
  "\u2581fathers": 2973,
  "\u2581binubuo": 2974,
  "\u2581goal": 2975,
  "ci": 2976,
  "\u2581Encyclopedia": 2977,
  "\u2581Le": 2978,
  "\u2581aari": 2979,
  "\u2581lakad": 2980,
  "\u00e9": 2981,
  "\u2581kaaliwan": 2982,
  "\u2581tagapamahala": 2983,
  "\u2581island": 2984,
  "\u2581road": 2985,
  "\u2581easily": 2986,
  "\u2581nagsisi": 2987,
  "\u2581brain": 2988,
  "\u2581lie": 2989,
  "\u2581vision": 2990,
  "\u2581dedicated": 2991,
  "\u2581chosen": 2992,
  "\u2581lumipat": 2993,
  "\u2581talababa": 2994,
  "\u2581heavy": 2995,
  "\u2581active": 2996,
  "\u2581Karaniwan": 2997,
  "\u2581military": 2998,
  "\u2581pinahiran": 2999,
  "\u2581continues": 3000,
  "\u2581deeply": 3001,
  "\u2581late": 3002,
  "\u2581steps": 3003,
  "\u2581realized": 3004,
  "\u2581claim": 3005,
  "\u2581reached": 3006,
  "\u2581inilathala": 3007,
  "\u2581pagkakasala": 3008,
  "\u25c6": 3009,
  "\u2581missionaries": 3010,
  "ling": 3011,
  "\u2581pagsasalita": 3012,
  "\u2581sangay": 3013,
  "\u2581panginoon": 3014,
  "\u2581Lupa": 3015,
  "\u2581iskolar": 3016,
  "\u2581kahalagahan": 3017,
  "\u2581produced": 3018,
  "\u2581Jordan": 3019,
  "\u2581nabanggit": 3020,
  "\u2581tabi": 3021,
  "\u2581kanser": 3022,
  "\u2581cost": 3023,
  "\u2581ahead": 3024,
  "\u2581bautismo": 3025,
  "\u2581copy": 3026,
  "\u2581devotion": 3027,
  "\u2581enter": 3028,
  "\u2581awa": 3029,
  "\u2581international": 3030,
  "\u2581seeing": 3031,
  "\u2581bayad": 3032,
  "\u2581pagdalaw": 3033,
  "aw": 3034,
  "\u2581iingat": 3035,
  "\u2581sacred": 3036,
  "\u2581Messiah": 3037,
  "\u2581guidance": 3038,
  "\u2581step": 3039,
  "\u2581center": 3040,
  "\u2581hundreds": 3041,
  "\u2581discovered": 3042,
  "\u2581tag": 3043,
  "\u2581Similarly": 3044,
  "\u2581demonyo": 3045,
  "\u2581neighbor": 3046,
  "\u2581Sea": 3047,
  "\u2581Paraiso": 3048,
  "\u2581rain": 3049,
  "\u2581evening": 3050,
  "\u2581judge": 3051,
  "\u2581salik": 3052,
  "\u2581battle": 3053,
  "\u2581proteksiyon": 3054,
  "\u2581Good": 3055,
  "\u2581kalahati": 3056,
  "\u2581mainit": 3057,
  "\u2581Mabuti": 3058,
  "\u25811990": 3059,
  "\u258165": 3060,
  "\u2581Hangga": 3061,
  "\u2581army": 3062,
  "\u2581household": 3063,
  "\u2581istilo": 3064,
  "\u2581magpa": 3065,
  "\u2581lihim": 3066,
  "\u2581Eden": 3067,
  "\u2581NA": 3068,
  "\u2581universe": 3069,
  "\u2581katamtaman": 3070,
  "Do": 3071,
  "\u2581Despi": 3072,
  "\u2581economic": 3073,
  "\u2581kasuwato": 3074,
  "\u2581lansangan": 3075,
  "\u2581Josue": 3076,
  "\u2581bulaklak": 3077,
  "\u2581across": 3078,
  "\u2581low": 3079,
  "\u2581mamamahayag": 3080,
  "\u2581Kasama": 3081,
  "\u2581affected": 3082,
  "\u2581brings": 3083,
  "\u2581walong": 3084,
  "hindi": 3085,
  "\u2581bandang": 3086,
  "\u2581pagnanasa": 3087,
  "\u2581teachers": 3088,
  "\u2581prevent": 3089,
  "\u2581probably": 3090,
  "\u2581story": 3091,
  "\u2581debosyon": 3092,
  "\u2581paniwala": 3093,
  "\u2581paglalaan": 3094,
  "\u2581pagsang": 3095,
  "\u2581strengthen": 3096,
  "\u2581Saan": 3097,
  "\u2581concerned": 3098,
  "\u2581manalangin": 3099,
  "\u2581Iyon": 3100,
  "\u2581magagandang": 3101,
  "\u2581manner": 3102,
  "\u2581pagsasalin": 3103,
  "\u2581responsible": 3104,
  "ke": 3105,
  "\u2581treat": 3106,
  "\u2581dangerous": 3107,
  "\u2581makatuwirang": 3108,
  "\u2581unique": 3109,
  "\u2581cope": 3110,
  "\u2581hospital": 3111,
  "\u2581amount": 3112,
  "\u2581produkto": 3113,
  "\u2581environment": 3114,
  "\u2581rejoice": 3115,
  "\u2581main": 3116,
  "\u2581points": 3117,
  "\u2581prophets": 3118,
  "\u2581encourage": 3119,
  "\u2581mababasa": 3120,
  "glalaman": 3121,
  "\u2581energy": 3122,
  "\u2581marinig": 3123,
  "\u2581anupa": 3124,
  "\u2581becomes": 3125,
  "\u2581carefully": 3126,
  "\u2581black": 3127,
  "\u2581included": 3128,
  "\u2581tagapag": 3129,
  "\u2581endure": 3130,
  "\u2581inhabitants": 3131,
  "\u2581doktrina": 3132,
  "\u2581maganda": 3133,
  "Y": 3134,
  "\u2581experiences": 3135,
  "\u2581gantimpala": 3136,
  "\u2581non": 3137,
  "\u2581bituin": 3138,
  "Na": 3139,
  "\u2581karagdagang": 3140,
  "AN": 3141,
  "ial": 3142,
  "\u2581existence": 3143,
  "\u2581victims": 3144,
  "hu": 3145,
  "\u2581crime": 3146,
  "\u2581situwasyon": 3147,
  "\u2581Aleman": 3148,
  "\u2581names": 3149,
  "\u2581Us": 3150,
  "\u2581naganap": 3151,
  "\u2581pun\u00f4": 3152,
  "\u2581greatly": 3153,
  "\u2581pananalitang": 3154,
  "\u2581approach": 3155,
  "\u2581destroy": 3156,
  "\u2581landas": 3157,
  "\u2581kabayo": 3158,
  "\u2581nagpatuloy": 3159,
  "\u2581pure": 3160,
  "\u2581race": 3161,
  "\u2581inilarawan": 3162,
  "\u2581tribo": 3163,
  "\u258128,": 3164,
  "\u2581Ta": 3165,
  "\u2581Inay": 3166,
  "\u2581kasiya": 3167,
  "\u2581forget": 3168,
  "\u2581nabautismuhan": 3169,
  "\u2581behold": 3170,
  "\u2581nagdudulot": 3171,
  "\u2581personalidad": 3172,
  "\u2581reaksiyon": 3173,
  "abot": 3174,
  "\u2581average": 3175,
  "\u2581wastong": 3176,
  "\u2581company": 3177,
  "\u2581Patuloy": 3178,
  "\u2581camp": 3179,
  "\u2581cell": 3180,
  "\u2581gathered": 3181,
  "\u2581hangarin": 3182,
  "\u2581Gaano": 3183,
  "\u2581dedication": 3184,
  "\u2581encouragement": 3185,
  "7": 3186,
  "\u2581cancer": 3187,
  "\u2581tagubilin": 3188,
  "\u2581Should": 3189,
  "\u2581leading": 3190,
  "\u2581taka": 3191,
  "\u2581pinahahalagahan": 3192,
  "\u2581video": 3193,
  "pu": 3194,
  "\u2581Pagkaraan": 3195,
  "\u2581aware": 3196,
  "\u2581nakikinig": 3197,
  "ine": 3198,
  "\u2581likod": 3199,
  "\u2581mayaman": 3200,
  "\u2581pangalang": 3201,
  "\u2581Through": 3202,
  "\u2581despite": 3203,
  "\u2581image": 3204,
  "\u2581magawa": 3205,
  "\u2581extreme": 3206,
  "\u2581lose": 3207,
  "\u2581effects": 3208,
  "\u2581hilig": 3209,
  "\u2581global": 3210,
  "\u2581iniutos": 3211,
  "\u2581stood": 3212,
  "\u2581tinatanggap": 3213,
  "\u2581hearing": 3214,
  "\u2581higher": 3215,
  "\u2581surely": 3216,
  "\u2581taas": 3217,
  "\u2581doctors": 3218,
  "\u2581doo": 3219,
  "\u2581kabutihan": 3220,
  "kapagpapatibay": 3221,
  "\u2581Naging": 3222,
  "\u2581courage": 3223,
  "\u2581cover": 3224,
  "\u2581practices": 3225,
  "\u2581salin": 3226,
  "\u2581Once": 3227,
  "\u2581ibigay": 3228,
  "\u2581pagtitiis": 3229,
  "\u2581visited": 3230,
  "Let": 3231,
  "\u2581tanawin": 3232,
  "\u2581tongue": 3233,
  "\u2581growth": 3234,
  "\u2581humble": 3235,
  "\u2581Marcos": 3236,
  "\u2581Baal": 3237,
  "\u2581search": 3238,
  "\u2581uma": 3239,
  "\u2581importance": 3240,
  "\u2581Filipos": 3241,
  "\u2581disiplina": 3242,
  "\u2581rock": 3243,
  "\u2581lay": 3244,
  "ah": 3245,
  "rs": 3246,
  "\u2581angaw": 3247,
  "\u2581tuwi": 3248,
  "\u2581mountains": 3249,
  "\u2581recognize": 3250,
  "\u2581tribulation": 3251,
  "\u2581suma": 3252,
  "\u2581total": 3253,
  "\u2581plant": 3254,
  "\u2581red": 3255,
  "\u2581Maylikha": 3256,
  "\u2581assigned": 3257,
  "\u2581contrast": 3258,
  "\u2581religions": 3259,
  "\u2581panggigipit": 3260,
  "\u2581cells": 3261,
  "\u2581pagtulong": 3262,
  "\u2581rise": 3263,
  "\u2581unity": 3264,
  "\u2581foot": 3265,
  "\u2581tuwirang": 3266,
  "\u2581Tao": 3267,
  "\u2581Blu": 3268,
  "\u2581desires": 3269,
  "\u2581particular": 3270,
  "\u2581wait": 3271,
  "\u2581alcohol": 3272,
  "\u2581chief": 3273,
  "\u2581effective": 3274,
  "\u2581site": 3275,
  "\u2581churches": 3276,
  "\u2581puri": 3277,
  "\u2581talking": 3278,
  "\u2581expected": 3279,
  "\u2581Hitler": 3280,
  "\u2581nagpa": 3281,
  "\u2581pasasalamat": 3282,
  "\u2581science": 3283,
  "\u2581ibibigay": 3284,
  "\u2581limited": 3285,
  "\u2581uring": 3286,
  "\u2581ngayo": 3287,
  "\u2581art": 3288,
  "\u2581sumagot": 3289,
  "\u258121,": 3290,
  "\u2581militar": 3291,
  "\u2581pinatay": 3292,
  "\u2581relative": 3293,
  "\u2581Araw": 3294,
  "\u2581akit": 3295,
  "\u2581Other": 3296,
  "\u2581attack": 3297,
  "\u2581kanan": 3298,
  "\u2581pananaw": 3299,
  "\u2581fail": 3300,
  "\u2581pagpapa": 3301,
  "\u2581sort": 3302,
  "\u2581makabago": 3303,
  "\u2581iwan": 3304,
  "\u2581silver": 3305,
  "\u2581conclusion": 3306,
  "\u2581drinking": 3307,
  "\u2581none": 3308,
  "\u2581saganang": 3309,
  "\u2581display": 3310,
  "\u2581placed": 3311,
  "\u2581Kabilang": 3312,
  "\u2581Mount": 3313,
  "\u2581State": 3314,
  "\u2581Datapuwa": 3315,
  "\u2581Finally": 3316,
  "tic": 3317,
  "\u2581pagpapakita": 3318,
  "\u2581ipinahayag": 3319,
  "\u2581ikatlong": 3320,
  "\u2581creatures": 3321,
  "\u2581magpakita": 3322,
  "\u2581appeared": 3323,
  "\u2581measure": 3324,
  "\u2581writer": 3325,
  "\u2581North": 3326,
  "\u2581generation": 3327,
  "He": 3328,
  "\u2581Don": 3329,
  "\u2581worth": 3330,
  "\u2581guard": 3331,
  "\u2581pinakamahalaga": 3332,
  "\u2581refused": 3333,
  "\u2581magsimula": 3334,
  "\u2581puti": 3335,
  "\u2581sasakyan": 3336,
  "and": 3337,
  "\u258126.": 3338,
  "\u2581stone": 3339,
  "du": 3340,
  "\u2581delivered": 3341,
  "\u2581iniulat": 3342,
  "\u2581Mahalaga": 3343,
  "\u2581Was": 3344,
  "\u2581agree": 3345,
  "\u2581consequences": 3346,
  "\u2581hangga": 3347,
  "\u2581Inglatera": 3348,
  "\u2581imperfect": 3349,
  "\u2581Pansinin": 3350,
  "\u2581gustong": 3351,
  "\u2581paulit": 3352,
  "ist": 3353,
  "\u2581level": 3354,
  "\u2581maiwasan": 3355,
  "\u2581pilak": 3356,
  "\u2581kinuha": 3357,
  "\u2581nagagawa": 3358,
  "\u2581nagpapahiwatig": 3359,
  "\u2581pagsasama": 3360,
  "\u2581Among": 3361,
  "1": 3362,
  "\u2581kasal": 3363,
  "\u2581lumitaw": 3364,
  "\u2581pawang": 3365,
  "\u2581pinto": 3366,
  "\u2581saved": 3367,
  "\u2581secret": 3368,
  "\u2581pagkaunawa": 3369,
  "ver": 3370,
  "\u2581faced": 3371,
  "\u2581top": 3372,
  "\u2581viewed": 3373,
  "ther": 3374,
  "\u2581Itay": 3375,
  "\u2581inaasahang": 3376,
  "\u2581persecution": 3377,
  "\u2581wide": 3378,
  "\u2581Panahon": 3379,
  "\u258128:": 3380,
  "\u2581nasasangkot": 3381,
  "\u2581occur": 3382,
  "\u2581village": 3383,
  "\u2581Samahan": 3384,
  "\u2581cast": 3385,
  "\u2581weight": 3386,
  "\u258131.": 3387,
  "\u2581Go": 3388,
  "\u25811.": 3389,
  "\u258138": 3390,
  "\u2581Blurb": 3391,
  "\u2581Family": 3392,
  "\u2581fill": 3393,
  "\u2581Indian": 3394,
  "\u2581baguhin": 3395,
  "\u2581sinasabing": 3396,
  "\u2581wild": 3397,
  "\u2581kapistahan": 3398,
  "\u2581event": 3399,
  "\u2581warm": 3400,
  "\u2581wind": 3401,
  "\u2581genuine": 3402,
  "\u2581makalupang": 3403,
  "\u2581midst": 3404,
  "\u2581pulitikal": 3405,
  "\u2581reflect": 3406,
  "ian": 3407,
  "we": 3408,
  "\u258128.": 3409,
  "\u2581pangkalahatan": 3410,
  "\u2581Version": 3411,
  "\u2581sunod": 3412,
  "bo": 3413,
  "\u2581attended": 3414,
  "\u2581naghihintay": 3415,
  "\u2581timog": 3416,
  "\u2581kusang": 3417,
  "\u2581mapagpakumbaba": 3418,
  "\u2581overseer": 3419,
  "\u2581patayin": 3420,
  "\u2581god": 3421,
  "\u2581magazines": 3422,
  "ive": 3423,
  "mp": 3424,
  "\u2581behalf": 3425,
  "\u2581cry": 3426,
  "\u2581mine": 3427,
  "\u2581nagngangalang": 3428,
  "\u2581bahagya": 3429,
  "mu": 3430,
  "\u258113]": 3431,
  "\u2581Karagdagan": 3432,
  "\u2581aalay": 3433,
  "\u2581elderly": 3434,
  "ish": 3435,
  "x": 3436,
  "\u2581mighty": 3437,
  "\u2581nauunawaan": 3438,
  "\u2581tandaan": 3439,
  "\u2581makadiyos": 3440,
  "\u2581bus": 3441,
  "\u2581humantong": 3442,
  "\u2581nakapipinsala": 3443,
  "\u2581wars": 3444,
  "od": 3445,
  "\u2581Halos": 3446,
  "\u2581kadalasan": 3447,
  "\u2581kaunti": 3448,
  "\u2581minamahal": 3449,
  "\u2581involves": 3450,
  "\u2581pagkaraan": 3451,
  "\u2581pan": 3452,
  "\u2581umiibig": 3453,
  "\u2581violent": 3454,
  "\u2581depression": 3455,
  "\u2581observe": 3456,
  "\u2581paglalarawan": 3457,
  "\u2581publishers": 3458,
  "\u2581sandata": 3459,
  "\u2581adulto": 3460,
  "\u2581afraid": 3461,
  "\u2581paksa": 3462,
  "\u2581remains": 3463,
  "ph": 3464,
  "\u2581puwedeng": 3465,
  "\u2581billion": 3466,
  "\u2581telepono": 3467,
  "\u2581publications": 3468,
  "\u2581remained": 3469,
  "\u2581sacrifices": 3470,
  "\u2581unting": 3471,
  "ate": 3472,
  "\u2581dwell": 3473,
  "\u2581metal": 3474,
  "\u2581makibahagi": 3475,
  "ir": 3476,
  "ity": 3477,
  "\u2581principle": 3478,
  "\u258142": 3479,
  "\u2581Simbahan": 3480,
  "\u2581Elias": 3481,
  "\u2581alamin": 3482,
  "\u2581trials": 3483,
  "\u2581&": 3484,
  "\u2581forest": 3485,
  "\u2581affection": 3486,
  "\u2581paper": 3487,
  "\u2581sentro": 3488,
  "like": 3489,
  "ol": 3490,
  "\u2581Remember": 3491,
  "\u2581warned": 3492,
  "\u2581factors": 3493,
  "\u2581kabaligtaran": 3494,
  "\u2581size": 3495,
  "\u2581skin": 3496,
  "\u2581August": 3497,
  "\u2581rate": 3498,
  "\u2581ibaba": 3499,
  "\u2581kaunawaan": 3500,
  "This": 3501,
  "\u2581hanapin": 3502,
  "\u2581aalis": 3503,
  "\u2581partikular": 3504,
  "\u2581closer": 3505,
  "\u2581Espanya": 3506,
  "\u2581Bundok": 3507,
  "\u2581lies": 3508,
  "\u2581pagpatay": 3509,
  "\u2581requires": 3510,
  "\u2581forms": 3511,
  "\u2581munting": 3512,
  "\u2581Sabihin": 3513,
  "\u2581lumipas": 3514,
  "\u2581nagsalita": 3515,
  "\u2581Sunday": 3516,
  "\u2581appearance": 3517,
  "\u2581nagtuturo": 3518,
  "\u2581relatives": 3519,
  "\u2581emosyonal": 3520,
  "\u2581darkness": 3521,
  "\u2581piraso": 3522,
  "\u2581putting": 3523,
  "\u2581response": 3524,
  "F": 3525,
  "\u258116]": 3526,
  "\u2581surface": 3527,
  "\u2581Pranses": 3528,
  "\u2581asking": 3529,
  "\u2581belief": 3530,
  "\u2581kahirapan": 3531,
  "\u2581train": 3532,
  "\u2581September": 3533,
  "\u2581imagine": 3534,
  "\u2581Nais": 3535,
  "\u2581deliver": 3536,
  "\u2581kagamitan": 3537,
  "\u2581April": 3538,
  "\u2581Griegong": 3539,
  "\u2581Kanilang": 3540,
  "\u2581buy": 3541,
  "\u2581fast": 3542,
  "\u2581plants": 3543,
  "\u2581tears": 3544,
  "\u2581Kristiyanismo": 3545,
  "\u2581masunurin": 3546,
  "\u2581overcome": 3547,
  "\u2581pioneers": 3548,
  "\u2581grew": 3549,
  "\u2581R": 3550,
  "\u2581developing": 3551,
  "\u2581divorce": 3552,
  "\u2581hukuman": 3553,
  "\u2581lumapit": 3554,
  "\u2581escape": 3555,
  "\u2581regalo": 3556,
  "\u2581saksi": 3557,
  "ran": 3558,
  "\u2581Doon": 3559,
  "ies": 3560,
  "\u2581merely": 3561,
  "\u25814;": 3562,
  "\u2581association": 3563,
  "\u2581includes": 3564,
  "\u2581malap\u00edt": 3565,
  "\u25815]": 3566,
  "\u2581British": 3567,
  "\u2581napag": 3568,
  "\u2581kapakinabangan": 3569,
  "\u2581planeta": 3570,
  "\u2581north": 3571,
  "\u2581Ebanghelyo": 3572,
  "\u2581attending": 3573,
  "\u2581designed": 3574,
  "\u2581mamuhay": 3575,
  "\u2581minutes": 3576,
  "\u2581pananalangin": 3577,
  "\u2581abuso": 3578,
  "\u2581Under": 3579,
  "\u2581delight": 3580,
  "\u2581libingan": 3581,
  "\u2581note": 3582,
  "%": 3583,
  "\u2581Take": 3584,
  "\u2581kanluran": 3585,
  "\u2581nagsisikap": 3586,
  "\u2581community": 3587,
  "\u2581ibigin": 3588,
  "\u2581Clearly": 3589,
  "\u2581reasonable": 3590,
  "\u2581trouble": 3591,
  "\u2581tuwa": 3592,
  "\u2581wall": 3593,
  "\u2581inumin": 3594,
  "\u2581laid": 3595,
  "\u2581mungkahi": 3596,
  "\u2581pagsalakay": 3597,
  "\u2581tren": 3598,
  "\u2581maliban": 3599,
  "\u2581national": 3600,
  "\u2581kataka": 3601,
  "\u2581Disyembre": 3602,
  "\u2581kalahating": 3603,
  "\u2581baybayin": 3604,
  "\u2581beauty": 3605,
  "\u2581iniwan": 3606,
  "\u2581appears": 3607,
  "There": 3608,
  "\u2581Anuman": 3609,
  "\u2581Setyembre": 3610,
  "\u2581negative": 3611,
  "\u2581telebisyon": 3612,
  "ck": 3613,
  "\u2581foreign": 3614,
  "\u2581kapahamakan": 3615,
  "\u2581sharing": 3616,
  "\u2581blind": 3617,
  "\u2581plano": 3618,
  "ig": 3619,
  "\u2581cold": 3620,
  "\u2581ganoon": 3621,
  "\u2581hot": 3622,
  "\u2581presented": 3623,
  "\u2581daughters": 3624,
  "\u2581Spain": 3625,
  "\u2581Spanish": 3626,
  "\u2581contains": 3627,
  "\u2581talaksan": 3628,
  "\u2581IN": 3629,
  "\u2581inom": 3630,
  "\u2581gagawa": 3631,
  "\u2581eternal": 3632,
  "ge": 3633,
  "\u2581Kasulatang": 3634,
  "\u2581forces": 3635,
  "\u2581reality": 3636,
  "\u2581specific": 3637,
  "\u2581tularan": 3638,
  "\u2581la": 3639,
  "\u2581manatili": 3640,
  "\u2581masumpungan": 3641,
  "\u2581opposition": 3642,
  "\u2581sit": 3643,
  "\u2581tatlo": 3644,
  "\u2581Amerikano": 3645,
  "\u2581Banal": 3646,
  "\u2581arrangement": 3647,
  "\u2581binabasa": 3648,
  "\u2581urged": 3649,
  "va": 3650,
  "\u2581Abril": 3651,
  "\u2581pangunahin": 3652,
  "\u2581December": 3653,
  "\u2581Mambabasa": 3654,
  "\u2581nakikitang": 3655,
  "\u2581Lot": 3656,
  "\u2581Readers": 3657,
  "\u2581lumakad": 3658,
  "\u2581tunog": 3659,
  "IN": 3660,
  "am": 3661,
  "\u2581Earth": 3662,
  "\u2581bed": 3663,
  "\u2581detalye": 3664,
  "\u2581pagtitipon": 3665,
  "\u2581Gayunpaman": 3666,
  "\u2581pelikula": 3667,
  "\u2581Sumulat": 3668,
  "\u2581harm": 3669,
  "\u2581katayuan": 3670,
  "\u2581naglalaan": 3671,
  "\u2581mangaral": 3672,
  "\u2581sinimulan": 3673,
  "\u2581aso": 3674,
  "\u2581student": 3675,
  "\u2581tumatanggap": 3676,
  "su": 3677,
  "\u2581dalubhasa": 3678,
  "\u2581sumama": 3679,
  "Si": 3680,
  "\u2581tradisyon": 3681,
  "\u2581bumangon": 3682,
  "\u2581opinyon": 3683,
  "\u2581umaasa": 3684,
  "\u2581goals": 3685,
  "\u2581utang": 3686,
  "\u2581values": 3687,
  "\u2581vast": 3688,
  "\u2581Spirit": 3689,
  "\u2581espiritung": 3690,
  "\u2581Espiritu": 3691,
  "\u2581improve": 3692,
  "\u2581pulitika": 3693,
  "\u2581successful": 3694,
  "\u2581udyok": 3695,
  "\u2581desisyon": 3696,
  "\u2581truths": 3697,
  "\u2581saith": 3698,
  "\u2581Jonathan": 3699,
  "\u2581diseases": 3700,
  "\u2581illness": 3701,
  "\u2581kahinaan": 3702,
  "\u2581sangbahayan": 3703,
  "\u2581ugat": 3704,
  "\u2581examine": 3705,
  "\u2581pleasure": 3706,
  "\u2581quoted": 3707,
  "ki": 3708,
  "\u2581300": 3709,
  "\u2581Journal": 3710,
  "\u2581Parents": 3711,
  "\u2581komento": 3712,
  "\u2581landasin": 3713,
  "\u2581Kadalasan": 3714,
  "\u2581entered": 3715,
  "\u2581pagkatakot": 3716,
  "\u2581Britain": 3717,
  "\u2581Nito": 3718,
  "\u2581pagkaka": 3719,
  "\u2581purposes": 3720,
  "\u2581translation": 3721,
  "\u2581East": 3722,
  "\u2581Pinag": 3723,
  "\u2581papa": 3724,
  "\u2581mundo": 3725,
  "\u2581accounts": 3726,
  "\u2581bilanggo": 3727,
  "\u2581river": 3728,
  "\u2581gifts": 3729,
  "\u2581huge": 3730,
  "\u2581guide": 3731,
  "\u2581personally": 3732,
  "\u2581space": 3733,
  "higit": 3734,
  "\u2581kaigtingan": 3735,
  "\u2581paglalang": 3736,
  "\u2581resurrected": 3737,
  "\u2581estimated": 3738,
  "\u2581hukom": 3739,
  "\u2581kagandahang": 3740,
  "\u2581nakakita": 3741,
  "\u2581bringing": 3742,
  "\u2581nagnanais": 3743,
  "\u2581Dito": 3744,
  "\u2581kalikasan": 3745,
  "\u2581malimit": 3746,
  "all": 3747,
  "ff": 3748,
  "\u2581kadiliman": 3749,
  "\u2581kagandahan": 3750,
  "Ako": 3751,
  "\u258155": 3752,
  "\u2581Kanluran": 3753,
  "\u2581convinced": 3754,
  "\u2581pareho": 3755,
  "\u2581girls": 3756,
  "\u2581pagtanggap": 3757,
  "\u2581letters": 3758,
  "\u2581verse": 3759,
  "When": 3760,
  "\u258114;": 3761,
  "\u2581Noon": 3762,
  "\u2581exist": 3763,
  "\u2581issues": 3764,
  "\u2581napatunayan": 3765,
  "\u2581patients": 3766,
  "\u2581younger": 3767,
  "\u2581Peace": 3768,
  "\u2581formed": 3769,
  "\u2581male": 3770,
  "\u2581ginawang": 3771,
  "\u2581simpleng": 3772,
  "\u2581valuable": 3773,
  "\u2581Tanong": 3774,
  "\u2581communication": 3775,
  "\u258127.": 3776,
  "\u25816]": 3777,
  "\u2581buwis": 3778,
  "mon": 3779,
  "\u2581kompanya": 3780,
  "\u2581tagapakinig": 3781,
  "\u2581Day": 3782,
  "\u2581Robert": 3783,
  "tan": 3784,
  "\u2581Ha": 3785,
  "\u2581Tandaan": 3786,
  "ber": 3787,
  "\u2581discuss": 3788,
  "\u2581extent": 3789,
  "\u2581marunong": 3790,
  "\u2581nagpasiya": 3791,
  "\u2581prepare": 3792,
  "\u2581sumulong": 3793,
  "\u2581Tagapamahala": 3794,
  "\u2581broken": 3795,
  "\u2581sumapit": 3796,
  "What": 3797,
  "\u2581direct": 3798,
  "\u2581nauugnay": 3799,
  "\u2581color": 3800,
  "\u25812,000": 3801,
  "\u2581Testament": 3802,
  "\u2581Un": 3803,
  "\u2581wilderness": 3804,
  "\u2581California": 3805,
  "\u2581listening": 3806,
  "\u2581Judea": 3807,
  "\u2581Mi": 3808,
  "\u2581garden": 3809,
  "\u2581indicate": 3810,
  "\u2581survive": 3811,
  "\u2581pulis": 3812,
  "\u2581illustration": 3813,
  "\u2581damage": 3814,
  "\u2581mere": 3815,
  "wi": 3816,
  "\u2581samakatuwid": 3817,
  "\u2581July": 3818,
  "\u2581pampatibay": 3819,
  "\u2581tila": 3820,
  "\u258136": 3821,
  "\u2581harapan": 3822,
  "\u2581pre": 3823,
  "\u2581safe": 3824,
  "\u2581bukid": 3825,
  "ler": 3826,
  "\u2581Nasa": 3827,
  "\u2581arian": 3828,
  "\u2581busy": 3829,
  "\u2581proyekto": 3830,
  "\u2581travel": 3831,
  "\u2581writes": 3832,
  "\u2581committed": 3833,
  "\u2581houses": 3834,
  "\u2581Really": 3835,
  "\u2581aksidente": 3836,
  "\u2581describes": 3837,
  "\u2581imoralidad": 3838,
  "\u2581negatibo": 3839,
  "\u2581Translation": 3840,
  "\u2581West": 3841,
  "\u2581aid": 3842,
  "\u2581Without": 3843,
  "\u2581binibigyan": 3844,
  "\u2581kumikilos": 3845,
  "\u2581media": 3846,
  "\u2581hurt": 3847,
  "\u2581malawak": 3848,
  "\u2581napansin": 3849,
  "\u2581poverty": 3850,
  "\u2581wish": 3851,
  "lipas": 3852,
  "\u2581nakatayo": 3853,
  "\u2581severe": 3854,
  "\u2581smoking": 3855,
  "\u2581Elijah": 3856,
  "\u2581alinman": 3857,
  "\u2581comments": 3858,
  "\u2581powers": 3859,
  "\u2581umabot": 3860,
  "\u2581Hulyo": 3861,
  "\u2581takdang": 3862,
  "\u2581Paris": 3863,
  "\u2581covered": 3864,
  "\u2581cultivate": 3865,
  "\u2581Cor": 3866,
  "\u2581Philippians": 3867,
  "\u258116;": 3868,
  "\u2581preached": 3869,
  "\u2581natatakot": 3870,
  "\u2581opening": 3871,
  "\u258135.": 3872,
  "\u2581minds": 3873,
  "\u2581Yao": 3874,
  "\u2581correct": 3875,
  "\u2581count": 3876,
  "\u2581itinayo": 3877,
  "\u2581enemy": 3878,
  "\u2581lunas": 3879,
  "\u2581Organization": 3880,
  "\u2581pinakamabuti": 3881,
  "les": 3882,
  "\u2581High": 3883,
  "\u2581helpful": 3884,
  "\u2581nagsisimula": 3885,
  "\u2581nanalangin": 3886,
  "\u2581Biblical": 3887,
  "\u2581katumbas": 3888,
  "\u2581tawag": 3889,
  "za": 3890,
  "\u2581careful": 3891,
  "\u2581Furthermore": 3892,
  "\u2581Japanese": 3893,
  "\u2581request": 3894,
  "\u2581situations": 3895,
  "ring": 3896,
  "\u2581ebidensiya": 3897,
  "\u2581mana": 3898,
  "\u2581Body": 3899,
  "\u2581box": 3900,
  "\u2581dalhin": 3901,
  "\u2581advantage": 3902,
  "\u2581leaving": 3903,
  "\u2581listed": 3904,
  "\u2581tiwala": 3905,
  "\u2581uli": 3906,
  "pinaliwanag": 3907,
  "\u2581magpasiya": 3908,
  "\u2581nagbago": 3909,
  "\u2581naranasan": 3910,
  "\u258110;": 3911,
  "\u258130.": 3912,
  "\u2581Hap\u00f3n": 3913,
  "\u2581Matapos": 3914,
  "\u2581Mother": 3915,
  "\u2581dukha": 3916,
  "\u2581reveal": 3917,
  "\u25811914": 3918,
  "\u2581lesson": 3919,
  "\u2581kasamahan": 3920,
  "\u2581master": 3921,
  "\u2581Sometimes": 3922,
  "\u2581klero": 3923,
  "\u2581tanungin": 3924,
  "\u2581rehiyon": 3925,
  "\u2581co": 3926,
  "\u2581katiyakan": 3927,
  "\u2581pader": 3928,
  "\u2581ayunan": 3929,
  "\u2581bodies": 3930,
  "\u2581ipinag": 3931,
  "\u00e1": 3932,
  "\u2581reward": 3933,
  "\u2581salot": 3934,
  "\u2581tahimik": 3935,
  "\u2581Being": 3936,
  "\u2581kasakdalan": 3937,
  "\u2581kasalukuyan": 3938,
  "\u2581lindol": 3939,
  "\u2581tauhan": 3940,
  "\u2581nakatutulong": 3941,
  "\u2581decades": 3942,
  "\u2581eroplano": 3943,
  "\u2581statement": 3944,
  "\u2581w": 3945,
  "\u2581Institute": 3946,
  "\u2581iniibig": 3947,
  "\u2581peoples": 3948,
  "\u2581positibong": 3949,
  "\u2581conversation": 3950,
  "\u2581hair": 3951,
  "\u2581internasyonal": 3952,
  "\u258141": 3953,
  "\u2581Siyempre": 3954,
  "\u2581lumaki": 3955,
  "\u2581shepherd": 3956,
  "ita": 3957,
  "men": 3958,
  "\u2581itinuro": 3959,
  "\u2581Enero": 3960,
  "\u2581acceptable": 3961,
  "\u2581estado": 3962,
  "\u2581financial": 3963,
  "\u2581masigasig": 3964,
  "\u2581Christmas": 3965,
  "\u2581Eclesiastes": 3966,
  "\u2581Kailan": 3967,
  "\u2581healthy": 3968,
  "\u2581television": 3969,
  "\u2581ugali": 3970,
  "\u2581June": 3971,
  "\u2581capital": 3972,
  "\u2581karangalan": 3973,
  "\u2581mabait": 3974,
  "\u2581nalabi": 3975,
  "\u2581uses": 3976,
  "\u2581clergy": 3977,
  "sta": 3978,
  "\u2581Agosto": 3979,
  "\u2581damo": 3980,
  "\u2581500": 3981,
  "\u2581demons": 3982,
  "\u2581kasamang": 3983,
  "\u2581maaasahan": 3984,
  "\u2581prophecies": 3985,
  "\u2581development": 3986,
  "\u2581nakahihigit": 3987,
  "\u2581posisyon": 3988,
  "\u2581territory": 3989,
  "gu": 3990,
  "\u2581Ecclesiastes": 3991,
  "\u2581dila": 3992,
  "\u2581throne": 3993,
  "ie": 3994,
  "\u2581January": 3995,
  "\u2581Pagkalipa": 3996,
  "\u2581batay": 3997,
  "\u2581discussion": 3998,
  "\u2581dulot": 3999,
  "\u2581grateful": 4000,
  "\u2581variety": 4001,
  "que": 4002,
  "\u2581Colosas": 4003,
  "per": 4004,
  "\u2581associated": 4005,
  "\u2581maligayang": 4006,
  "\u258121]": 4007,
  "\u2581Nakita": 4008,
  "\u2581setting": 4009,
  "\u2581dalaga": 4010,
  "\u2581proseso": 4011,
  "\u2581Aming": 4012,
  "\u2581Li": 4013,
  "\u2581impressed": 4014,
  "\u2581kauna": 4015,
  "\u2581moving": 4016,
  "\u2581focus": 4017,
  "\u2581iron": 4018,
  "\u2581list": 4019,
  "\u2581secular": 4020,
  "\u2581yari": 4021,
  "\u2581hatol": 4022,
  "ismo": 4023,
  "\u2581adults": 4024,
  "\u2581enable": 4025,
  "\u2581leaves": 4026,
  "\u2581loyalty": 4027,
  "\u2581surbey": 4028,
  "\u2581understood": 4029,
  "\u2581Dahilan": 4030,
  "\u2581Lagi": 4031,
  "\u2581October": 4032,
  "\u2581lumalakad": 4033,
  "\u2581nanganganib": 4034,
  "\u2581Oktubre": 4035,
  "\u2581laro": 4036,
  "\u2581determinado": 4037,
  "\u2581likewise": 4038,
  "\u2581pagbasa": 4039,
  "\u2581uulat": 4040,
  "\u2581organized": 4041,
  "W": 4042,
  "\u2581dumaranas": 4043,
  "\u2581hilaga": 4044,
  "\u2581magbibigay": 4045,
  "\u2581drawn": 4046,
  "\u2581encouraging": 4047,
  "\u2581sought": 4048,
  "inanggit": 4049,
  "\u2581Judas": 4050,
  "\u2581March": 4051,
  "\u2581file": 4052,
  "\u2581manga": 4053,
  "\u2581buhok": 4054,
  "\u2581ended": 4055,
  "\u2581thank": 4056,
  "\u2581dumanas": 4057,
  "\u2581paksang": 4058,
  "\u2581aalinlangan": 4059,
  "\u2581commandments": 4060,
  "\u2581governments": 4061,
  "\u2581prospect": 4062,
  "\u2581ruler": 4063,
  "\u258133.": 4064,
  "\u2581inatasan": 4065,
  "\u2581nuclear": 4066,
  "\u2581essential": 4067,
  "\u2581region": 4068,
  "\u2581Iba": 4069,
  "\u2581makukuha": 4070,
  "\u2581seriously": 4071,
  "\u2581wealth": 4072,
  "\u2581River": 4073,
  "\u2581malalim": 4074,
  "\u2581lumilitaw": 4075,
  "\u2581natitira": 4076,
  ",\"": 4077,
  "\u2581Land": 4078,
  "\u2581concluded": 4079,
  "\u2581hinihiling": 4080,
  "\u2581occurred": 4081,
  "\u2581referred": 4082,
  "\u2581Please": 4083,
  "\u2581ihahambing": 4084,
  "\u2581kumakain": 4085,
  "\u2581nasisiyahan": 4086,
  "\u2581pagkatao": 4087,
  "\u2581sincere": 4088,
  "\u2581friendship": 4089,
  "\u2581mapanatili": 4090,
  "\u2581obedience": 4091,
  "\u2581wood": 4092,
  "\u2581Michael": 4093,
  "\u2581naroon": 4094,
  "\u2581Cain": 4095,
  "\u2581Italya": 4096,
  "\u2581joined": 4097,
  "\u2581paninigarilyo": 4098,
  "batid": 4099,
  "\u2581construction": 4100,
  "\u2581dalisay": 4101,
  "\u2581nagaganap": 4102,
  "\u2581paghahanap": 4103,
  "\u2581pagtatapos": 4104,
  "\u2581scientific": 4105,
  "\u2581unahang": 4106,
  "\u2581nagdadala": 4107,
  "\u2581nagtanong": 4108,
  "\u2581nasusulat": 4109,
  "\u2581natatanging": 4110,
  "\u2581pakiramdam": 4111,
  "\u2581difference": 4112,
  "\u2581official": 4113,
  "\u2581instruction": 4114,
  "\u2581kulang": 4115,
  "\u2581mapayapa": 4116,
  "\u2581pinakama": 4117,
  "\u2581pintuan": 4118,
  "\u25811986": 4119,
  "\u2581Mayo": 4120,
  "\u2581join": 4121,
  "\u2581kahatulan": 4122,
  "\u2581naghahanap": 4123,
  "\u2581nagsasabing": 4124,
  "\u2581nagsi": 4125,
  "\u2581stars": 4126,
  "ary": 4127,
  "\u2581Ipinakita": 4128,
  "\u2581applied": 4129,
  "\u2581grown": 4130,
  "\u2581kakaiba": 4131,
  "\u2581nawalan": 4132,
  "\u2581panatilihin": 4133,
  "\u25818]": 4134,
  "\u2581Every": 4135,
  "\u2581aside": 4136,
  "\u2581matutuhan": 4137,
  "\u2581George": 4138,
  "\u2581ngayong": 4139,
  "\u2581trained": 4140,
  "\u2581kalakip": 4141,
  "\u2581style": 4142,
  "\u2581tingin": 4143,
  "\u2581turuan": 4144,
  "0": 4145,
  "\u2581dahon": 4146,
  "\u2581hitsura": 4147,
  "\u2581Has": 4148,
  "\u2581forgive": 4149,
  "\u2581pintuang": 4150,
  "\u2581treated": 4151,
  "v": 4152,
  "\u2013": 4153,
  "\u2581Pang": 4154,
  "\u2581aani": 4155,
  "\u2581causing": 4156,
  "\u2581stopped": 4157,
  "\u2581libangan": 4158,
  "\u2581Look": 4159,
  "\u2581kabiyak": 4160,
  "\u2581susi": 4161,
  ":\"": 4162,
  "\u2581dry": 4163,
  "\u2581ekonomiya": 4164,
  "\u25811992": 4165,
  "land": 4166,
  "\u2581Pharisees": 4167,
  "\u2581neighbors": 4168,
  "\u2581ruin": 4169,
  "My": 4170,
  "\u2581facts": 4171,
  "\u2581magsisi": 4172,
  "\u2581Help": 4173,
  "\u2581nananalangin": 4174,
  "\u2581obedient": 4175,
  "\u2581Esther": 4176,
  "\u2581increasing": 4177,
  "\u2581worse": 4178,
  "\u2581Hunyo": 4179,
  "\u2581harvest": 4180,
  "\u2581nine": 4181,
  "\u2581pamayanan": 4182,
  "\u2581studied": 4183,
  "\u2581south": 4184,
  "\u2581Galacia": 4185,
  "\u2581assembly": 4186,
  "\u2581ministers": 4187,
  "\u2581Soviet": 4188,
  "\u2581anxiety": 4189,
  "\u2581caring": 4190,
  "\u2581forced": 4191,
  "\u2581magagamit": 4192,
  "\u2581magkasama": 4193,
  "\u2581yes": 4194,
  "\u2581saligan": 4195,
  "\u2581binata": 4196,
  "\u2581himala": 4197,
  "\u2581nakagawa": 4198,
  "\u2581pagpipigil": 4199,
  "\u2581unable": 4200,
  "\u2581welcome": 4201,
  "ja": 4202,
  "\u25811980": 4203,
  "\u2581Make": 4204,
  "\u2581compassion": 4205,
  "\u2581majority": 4206,
  "\u2581pagpili": 4207,
  "\u2581katalinuhan": 4208,
  "\u2581masaya": 4209,
  "\u2581okasyon": 4210,
  "\u2581riches": 4211,
  "\u2581tungkulin": 4212,
  "sh": 4213,
  "\u2581Judiong": 4214,
  "\u2581hirap": 4215,
  "\u2581meal": 4216,
  "\u2581Pharaoh": 4217,
  "\u2581magpatuloy": 4218,
  "\u2581pagano": 4219,
  "\u2581surprise": 4220,
  "\u2581eksperto": 4221,
  "\u2581n": 4222,
  "\u2581nakamamatay": 4223,
  "\u25811995": 4224,
  "\u25815;": 4225,
  "\u2581kinikilala": 4226,
  "\u2581matakot": 4227,
  "lugod": 4228,
  "\u2581kakulangan": 4229,
  "\u2581katiwasayan": 4230,
  "\u2581Hapon": 4231,
  "\u2581aabuso": 4232,
  "\u2581below": 4233,
  "\u2581evident": 4234,
  "gi": 4235,
  "\u2581William": 4236,
  "\u2581moment": 4237,
  "\u2581naparoon": 4238,
  "\u2581supply": 4239,
  "\u2581ta": 4240,
  "\u2581kaayaaya": 4241,
  "\u2581napapaharap": 4242,
  "\u258148": 4243,
  "\u2581consideration": 4244,
  "\u2581factor": 4245,
  "\u258123,": 4246,
  "\u2581magtrabaho": 4247,
  "\u2581pagdami": 4248,
  "\u2581kasakiman": 4249,
  "\u2581medisina": 4250,
  "\u2581rekord": 4251,
  "\u2581tugon": 4252,
  "om": 4253,
  "\u2581Marso": 4254,
  "\u2581harapin": 4255,
  "\u2581Al": 4256,
  "\u2581bangka": 4257,
  "\u2581telling": 4258,
  "\u2581Deuteronomio": 4259,
  "\u2581Samaria": 4260,
  "\u2581bakal": 4261,
  "\u2581carrying": 4262,
  "\u2581pursue": 4263,
  "\u2581sitwasyon": 4264,
  "\u2581siyam": 4265,
  "out": 4266,
  "\u2581Could": 4267,
  "\u2581Deuteronomy": 4268,
  "\u2581espirituwalidad": 4269,
  "\u2581researchers": 4270,
  "\u2581tukso": 4271,
  "\u2581Egipto": 4272,
  "\u2581highly": 4273,
  "\u2581recognized": 4274,
  "\u2581tinanong": 4275,
  "\u2581easier": 4276,
  "\u2581isina": 4277,
  "\u2581raise": 4278,
  "\u2581Taglay": 4279,
  "\u2581endurance": 4280,
  "\u2581sagana": 4281,
  "\u2581Nagtatanong": 4282,
  "\u2581immorality": 4283,
  "\u2581impossible": 4284,
  "\u2581nagpapatuloy": 4285,
  "\u2581sinalita": 4286,
  "\u2581Kastila": 4287,
  "\u2581babasahin": 4288,
  "\u2581challenges": 4289,
  "\u2581ideas": 4290,
  "\u2581makatulong": 4291,
  "\u2581matutulungan": 4292,
  "\u2581pagnanais": 4293,
  "\u2581struck": 4294,
  "\u2581katotohanang": 4295,
  "\u2581Karamihan": 4296,
  "\u2581asal": 4297,
  "\u2581complex": 4298,
  "\u2581discussed": 4299,
  "\u2581humility": 4300,
  "\u2581pride": 4301,
  "\u2581waiting": 4302,
  "ous": 4303,
  "May": 4304,
  "\u2581Exodus": 4305,
  "\u2581History": 4306,
  "\u2581released": 4307,
  "\u2581smoke": 4308,
  "\u258143": 4309,
  "\u2581clothing": 4310,
  "\u2581create": 4311,
  "\u2581hate": 4312,
  "\u2581nagmula": 4313,
  "\u2581papuri": 4314,
  "\u2581Human": 4315,
  "\u2581alkohol": 4316,
  "\u2581contrary": 4317,
  "\u2581emotions": 4318,
  "\u2581indicates": 4319,
  "\u2581leon": 4320,
  "\u2581magkagayon": 4321,
  "\u2581pagpupulong": 4322,
  "\u2581salinlahi": 4323,
  "\u2581sinoman": 4324,
  "\u2581distress": 4325,
  "\u2581largest": 4326,
  "\u2581trip": 4327,
  "\u2581alaga": 4328,
  "\u2581disciple": 4329,
  "\u2581nakaupo": 4330,
  "\u2581solution": 4331,
  "\u2581Behold": 4332,
  "\u2581kasinungalingan": 4333,
  "\u2581nalaman": 4334,
  "\u2581Se": 4335,
  "\u2581kapahayagan": 4336,
  "\u2581card": 4337,
  "\u2581nakikibahagi": 4338,
  "age": 4339,
  "\u2581Thank": 4340,
  "\u2581mabasa": 4341,
  "\u2581pagsalansang": 4342,
  "\u2581sumasampalataya": 4343,
  "\u2581won": 4344,
  "\u2581worshipers": 4345,
  "gsasagawa": 4346,
  "one": 4347,
  "\u2581layo": 4348,
  "\u2581nakadarama": 4349,
  "\u2581umakay": 4350,
  "\u2581heat": 4351,
  "\u2581petsa": 4352,
  "\u258112;": 4353,
  "\u25811970": 4354,
  "\u2581Western": 4355,
  "\u2581credit": 4356,
  "\u2581pananaliksik": 4357,
  "\u2581receiving": 4358,
  "for": 4359,
  "\u2581Lo": 4360,
  "\u2581banyaga": 4361,
  "\u2581immoral": 4362,
  "\u2581imposible": 4363,
  "\u2581niyan": 4364,
  "\u2581obtain": 4365,
  "\u2581Memorial": 4366,
  "\u2581Tesalonica": 4367,
  "\u2581circuit": 4368,
  "\u2581gagamitin": 4369,
  "\u2581nagpapangyari": 4370,
  "\u2581maayos": 4371,
  "0,000": 4372,
  "\u2581Ministry": 4373,
  "\u2581masalimuot": 4374,
  "\u2581perform": 4375,
  "\u2581Naniniwala": 4376,
  "\u2581motibo": 4377,
  "\u2581views": 4378,
  "vo": 4379,
  "\u2581ipinanganak": 4380,
  "\u2581k": 4381,
  "\u2581palad": 4382,
  "\u2581pinagpala": 4383,
  "\u2581potential": 4384,
  "\u2581Faith": 4385,
  "\u2581sari": 4386,
  "ac": 4387,
  "\u2581kumulang": 4388,
  "\u2581sikapin": 4389,
  "\u2581ears": 4390,
  "\u2581itim": 4391,
  "\u2581maaga": 4392,
  "\u2581matataas": 4393,
  "\u2581price": 4394,
  "\u258139": 4395,
  "\u2581Britanya": 4396,
  "\u2581bulag": 4397,
  "\u2581dealing": 4398,
  "\u2581famous": 4399,
  "\u25811991": 4400,
  "\u2581Makikita": 4401,
  "\u2581nagbabago": 4402,
  "\u2581paid": 4403,
  "\u2581Nakalulungkot": 4404,
  "\u2581dust": 4405,
  "sapit": 4406,
  "\u2581kumakatawan": 4407,
  "\u25811,000": 4408,
  "\u2581iligtas": 4409,
  "\u2581inheritance": 4410,
  "\u2581mambabasa": 4411,
  "\u2581react": 4412,
  "\u2581Hilaga": 4413,
  "\u2581pagsasabi": 4414,
  "nag": 4415,
  "\u2581karagatan": 4416,
  "\u2581naglingkod": 4417,
  "\u2581bukas": 4418,
  "\u2581tumakas": 4419,
  "\u2581hast": 4420,
  "\u2581kapitbahay": 4421,
  "\u2581operasyon": 4422,
  "\u2581gumugol": 4423,
  "\u2581manifest": 4424,
  "\u2581removed": 4425,
  "\u2581temperatura": 4426,
  "\u2581Questions": 4427,
  "\u2581ipinaliwanag": 4428,
  "\u2581kemikal": 4429,
  "\u2581pagpapatotoo": 4430,
  "\u2581speaks": 4431,
  "\u2581trade": 4432,
  "\u2581kampo": 4433,
  "\u2581pangungusap": 4434,
  "\u2581troubled": 4435,
  "\u2581Religion": 4436,
  "\u2581street": 4437,
  "\u2581tainga": 4438,
  "\u2581dumami": 4439,
  "\u2581walked": 4440,
  "\u2581144,000": 4441,
  "\u2581accomplish": 4442,
  "\u2581mababang": 4443,
  "\u2581pumunta": 4444,
  "\u2581tindahan": 4445,
  "\u2581tiyakin": 4446,
  "\u2581uminom": 4447,
  "\u2581Both": 4448,
  "\u2581beneficial": 4449,
  "\u2581kahon": 4450,
  "\u2581makakaya": 4451,
  "\u2581planet": 4452,
  "\u2581rejected": 4453,
  "\u2581Hav": 4454,
  "\u2581Italy": 4455,
  "\u2581female": 4456,
  "\u2581isinagawa": 4457,
  "\u2581doctrine": 4458,
  "\u2581translated": 4459,
  "may": 4460,
  "\u2581Madalas": 4461,
  "\u2581Surely": 4462,
  "\u2581ark": 4463,
  "\u2581boys": 4464,
  "\u258112]": 4465,
  "\u2581connection": 4466,
  "\u2581evidently": 4467,
  "\u2581hugis": 4468,
  "\u2581malalaman": 4469,
  "\u2581mature": 4470,
  "ent": 4471,
  "\u2581bahaging": 4472,
  "\u2581nakatala": 4473,
  "\u2581nearby": 4474,
  "\u2581sining": 4475,
  "\u2581Ini": 4476,
  "\u2581ill": 4477,
  "\u2581namumuhay": 4478,
  "\u2581tinutulungan": 4479,
  "\u2581witnessing": 4480,
  "\u2581Galatians": 4481,
  "\u2581offspring": 4482,
  "\u2581patiuna": 4483,
  "\u2581song": 4484,
  "\u2581survey": 4485,
  "\u2581copies": 4486,
  "\u2581espesipikong": 4487,
  "\u2581pattern": 4488,
  "\u2581shared": 4489,
  "\u2581BY": 4490,
  "\u2581dambana": 4491,
  "\u2581describe": 4492,
  "\u25811919": 4493,
  "\u2581reference": 4494,
  "\u2581sovereignty": 4495,
  "\u2581bilyong": 4496,
  "\u2581gatas": 4497,
  "\u2581insekto": 4498,
  "\u2581nabuhay": 4499,
  "\u2581makasalanan": 4500,
  "\u258125,": 4501,
  "\u2581caught": 4502,
  "\u2581require": 4503,
  "\u2581abundance": 4504,
  "\u2581natapos": 4505,
  "\u25812000": 4506,
  "\u2581Anu": 4507,
  "\u2581Charles": 4508,
  "\u2581Colossians": 4509,
  "\u258146": 4510,
  "\u2581disenyo": 4511,
  "\u2581isinilang": 4512,
  "\u2581lungsod": 4513,
  "\u2581dark": 4514,
  "\u2581makasagisag": 4515,
  "\u2581nakaligtas": 4516,
  "\u2581relihiyoso": 4517,
  "\u2581teknolohiya": 4518,
  "\u2581Inyo": 4519,
  "\u2581Sina": 4520,
  "\u2581nagmamalasakit": 4521,
  "\u2581Abel": 4522,
  "\u2581Exodo": 4523,
  "\u2581pakisuyo": 4524,
  "\u2581sigasig": 4525,
  "\u2581Protestante": 4526,
  "\u2581subjects": 4527,
  "\u2581kalungkutan": 4528,
  "\u2581industriya": 4529,
  "\u2581slaves": 4530,
  "\u2581forgiveness": 4531,
  "\u2581kasanayan": 4532,
  "\u2581binuhay": 4533,
  "\u2581directly": 4534,
  "\u2581handle": 4535,
  "\u2581kukulangin": 4536,
  "op": 4537,
  "\u2581teoriya": 4538,
  "\u2581Canaan": 4539,
  "\u2581bless": 4540,
  "\u2581generally": 4541,
  "\u2581haing": 4542,
  "\u2581kinatawan": 4543,
  "\u2581paghatol": 4544,
  "\u2581performed": 4545,
  "\u2581patience": 4546,
  "\u2581sake": 4547,
  "AL": 4548,
  "\u2581kasunod": 4549,
  "\u2581mababa": 4550,
  "\u2581pro": 4551,
  "\u2581sundalo": 4552,
  "\u2581China": 4553,
  "\u2581adult": 4554,
  "\u2581kaakit": 4555,
  "\u2581nakikilala": 4556,
  "\u2581anoma": 4557,
  "\u2581culture": 4558,
  "\u2581lower": 4559,
  "\u2581pagtatangi": 4560,
  "io": 4561,
  "\u2581Ra": 4562,
  "\u2581asamblea": 4563,
  "\u2581ninuno": 4564,
  "\u2581weapons": 4565,
  "\u2581Niya": 4566,
  "\u2581hilagang": 4567,
  "\u2581magtatagal": 4568,
  "\u2581thanks": 4569,
  "\u2581approval": 4570,
  "\u2581arms": 4571,
  "\u2581lasting": 4572,
  "\u2581touch": 4573,
  "\u2581atmosphere": 4574,
  "\u2581soldiers": 4575,
  "\u2581bilis": 4576,
  "\u2581natututuhan": 4577,
  "\u2581Bawa": 4578,
  "\u2581dumi": 4579,
  "\u2581husbands": 4580,
  "\u2581kambing": 4581,
  "\u2581pointed": 4582,
  "\u2581beloved": 4583,
  "\u2581karera": 4584,
  "\u2581makuha": 4585,
  "\u2581suporta": 4586,
  "\u2581wickedness": 4587,
  "\u2581zeal": 4588,
  "\u2581compared": 4589,
  "\u2581finding": 4590,
  "\u2581luha": 4591,
  "\u2581meat": 4592,
  "\u2581palaging": 4593,
  "ak": 4594,
  "\u2581Salamat": 4595,
  "\u2581apparently": 4596,
  "\u2581constantly": 4597,
  "\u2581ipaliwanag": 4598,
  "\u2581mahinahon": 4599,
  "\u2581outstanding": 4600,
  "\u258132.": 4601,
  "\u2581calling": 4602,
  "\u2581naisip": 4603,
  "\u2581soil": 4604,
  "\u2581walls": 4605,
  "\u2581Britannica": 4606,
  "\u2581Lupo": 4607,
  "\u2581likuran": 4608,
  "\u2581nahihirapan": 4609,
  "\u2581promote": 4610,
  "responsibilities": 4611,
  "\u2581kabalisahan": 4612,
  "\u2581ngipin": 4613,
  "\u2581sunud": 4614,
  "\u2581nagkakaroon": 4615,
  "\u2581nakatatanda": 4616,
  "\u2581chose": 4617,
  "\u2581clothes": 4618,
  "\u2581pambu": 4619,
  "\u2581sinusunod": 4620,
  "\u2581sukat": 4621,
  "\u2581tiny": 4622,
  "\u2581brosyur": 4623,
  "\u2581decide": 4624,
  "\u2581teaches": 4625,
  "\u2581balance": 4626,
  "\u2581habits": 4627,
  "\u2581isulat": 4628,
  "\u2581notice": 4629,
  "\u2581paglaki": 4630,
  "\u2581sold": 4631,
  "by": 4632,
  "\u2581Work": 4633,
  "\u2581hatred": 4634,
  "gradong": 4635,
  "\u2581Nobyembre": 4636,
  "\u2581overseers": 4637,
  "\u2581Makapangyarihan": 4638,
  "\u2581apart": 4639,
  "\u2581confident": 4640,
  "\u2581makagawa": 4641,
  "\u2581maybahay": 4642,
  "\u2581pagkaalam": 4643,
  "\u2581radio": 4644,
  "\u2581winter": 4645,
  "\u2581Governing": 4646,
  "\u2581Moab": 4647,
  "\u2581fat": 4648,
  "\u2581journey": 4649,
  "\u2581limitado": 4650,
  "\u2581maniwala": 4651,
  "\u2581saanman": 4652,
  "mer": 4653,
  "\u2581summer": 4654,
  "\u2581closely": 4655,
  "\u2581konklusyon": 4656,
  "\u2581lying": 4657,
  "\u258126,": 4658,
  "\u2581Levita": 4659,
  "\u2581rulers": 4660,
  "\u2581praying": 4661,
  "\u2581threat": 4662,
  "\u2581error": 4663,
  "\u2581victim": 4664,
  "ster": 4665,
  "\u2581Trinidad": 4666,
  "\u2581anu": 4667,
  "\u2581granted": 4668,
  "ron": 4669,
  "\u2581HIV": 4670,
  "\u2581Ireland": 4671,
  "\u2581November": 4672,
  "\u2581pakpak": 4673,
  "\u2581witnesses": 4674,
  "\u2581heed": 4675,
  "\u2581responded": 4676,
  "\u2581strive": 4677,
  "\u2581superior": 4678,
  "\u2581150": 4679,
  "\u2581Island": 4680,
  "\u2581magiliw": 4681,
  "\u2581nagtitiwala": 4682,
  "\u2581remnant": 4683,
  "\u2581remove": 4684,
  "\u2581determine": 4685,
  "\u2581suddenly": 4686,
  "\u2581Puwede": 4687,
  "\u2581Sobyet": 4688,
  "\u2581team": 4689,
  "\u2581chance": 4690,
  "\u2581exactly": 4691,
  "\u2581nananatili": 4692,
  "\u2581numbers": 4693,
  "\u2581separate": 4694,
  "\u2581slow": 4695,
  "\u2581feed": 4696,
  "\u2581Court": 4697,
  "\u2581f": 4698,
  "\u2581kabiguan": 4699,
  "\u2581pananamit": 4700,
  "\u2581pieces": 4701,
  "\u2581sat": 4702,
  "tion": 4703,
  "ud": 4704,
  "\u2581constant": 4705,
  "\u2581inanyayahan": 4706,
  "\u2581marahas": 4707,
  "\u2581nuklear": 4708,
  "\u2581Simon": 4709,
  "\u2581pangangatuwiran": 4710,
  "\u2581traditional": 4711,
  "\u2581entertainment": 4712,
  "\u2581store": 4713,
  "\u2581umasa": 4714,
  "AHINA": 4715,
  "\u2581Dagat": 4716,
  "\u2581Come": 4717,
  "\u2581Medical": 4718,
  "\u2581Report": 4719,
  "\u2581fulfill": 4720,
  "\u2581herself": 4721,
  "\u2581Catholics": 4722,
  "\u2581Science": 4723,
  "\u2581ipahayag": 4724,
  "\u2581joyful": 4725,
  "\u2581magnanakaw": 4726,
  "\u2581nangangaral": 4727,
  "\u2581providing": 4728,
  "\u2581Daily": 4729,
  "\u2581dokumento": 4730,
  "\u2581entitled": 4731,
  "\u2581katanungan": 4732,
  "\u2581pagdiriwang": 4733,
  "\u2581safety": 4734,
  "\u2581bearing": 4735,
  "\u2581hiniling": 4736,
  "\u2581hiwalay": 4737,
  "\u2581products": 4738,
  "\u2581Out": 4739,
  "\u2581Poland": 4740,
  "\u2581leads": 4741,
  "\u2581angry": 4742,
  "\u2581PAGE": 4743,
  "\u2581distance": 4744,
  "\u2581lumalaki": 4745,
  "\u2581prinsipe": 4746,
  "\u2581remarkable": 4747,
  "\u2581rules": 4748,
  "\u2581wrath": 4749,
  "\u2581Gentil": 4750,
  "\u2581Memoryal": 4751,
  "\u2581add": 4752,
  "\u2581cross": 4753,
  "\u2581officials": 4754,
  "mag": 4755,
  "\u2581assured": 4756,
  "\u2581kuwalipikado": 4757,
  "\u2581refers": 4758,
  "\u2581Often": 4759,
  "\u2581bagyo": 4760,
  "\u2581ipinahihiwatig": 4761,
  "\u2581ipinangako": 4762,
  "\u2581kakaunti": 4763,
  "\u2581satisfaction": 4764,
  "res": 4765,
  "\u2581Encyclop\u00e6dia": 4766,
  "\u2581Ibig": 4767,
  "\u2581maagang": 4768,
  "\u2581sakay": 4769,
  "\u2581thereof": 4770,
  "ized": 4771,
  "\u2581honest": 4772,
  "\u2581umiral": 4773,
  "\u2581aspekto": 4774,
  "\u2581directed": 4775,
  "\u2581iral": 4776,
  "\u2581itanong": 4777,
  "\u2581kaluguran": 4778,
  "\u2581nagbabala": 4779,
  "\u2581paghihirap": 4780,
  "\u2581stones": 4781,
  "\u2581conflict": 4782,
  "\u2581humigit": 4783,
  "\u2581masayang": 4784,
  "\u2581nananatiling": 4785,
  "\u2581poot": 4786,
  "\u2581release": 4787,
  "kin": 4788,
  "\u2581nakipag": 4789,
  "\u2581riyan": 4790,
  "\u2581signs": 4791,
  "tro": 4792,
  "\u2581mabigat": 4793,
  "\u2581nanay": 4794,
  "\u2581puspusan": 4795,
  "\u2581reign": 4796,
  "\u2581resist": 4797,
  "\u2581rights": 4798,
  "\u2581ship": 4799,
  "\u2581Gresya": 4800,
  "\u2581libis": 4801,
  "\u2581identify": 4802,
  "\u2581milk": 4803,
  "\u2581panlulumo": 4804,
  "\u2581reveals": 4805,
  "\u2581ebolusyon": 4806,
  "\u2581goodness": 4807,
  "\u2581marvelous": 4808,
  "\u2581bihira": 4809,
  "gen": 4810,
  "\u2581diborsiyo": 4811,
  "\u2581experts": 4812,
  "\u2581kasaganaan": 4813,
  "siya": 4814,
  "\u2581claims": 4815,
  "\u2581mark": 4816,
  "\u2581maysakit": 4817,
  "\u2581pagkalipas": 4818,
  "\u2581tribe": 4819,
  "\u2581February": 4820,
  "\u2581Muli": 4821,
  "\u2581belong": 4822,
  "\u2581dakila": 4823,
  "\u2581identified": 4824,
  "\u2581insight": 4825,
  "\u2581Buo": 4826,
  "\u2581Dalawang": 4827,
  "\u2581claimed": 4828,
  "\u2581details": 4829,
  "\u2581drive": 4830,
  "\u2581isinasagawa": 4831,
  "\u2581resulted": 4832,
  "\u2581terms": 4833,
  "con": 4834,
  "\u2581length": 4835,
  "\u2581middle": 4836,
  "\u2581struggle": 4837,
  "\u2581attendance": 4838,
  "\u2581background": 4839,
  "\u2581indicated": 4840,
  "\u2581market": 4841,
  "\u2581Watching": 4842,
  "\u2581depende": 4843,
  "\u2581kaagad": 4844,
  "\u2581kabisera": 4845,
  "\u2581balahibo": 4846,
  "\u2581labor": 4847,
  "\u2581pagkapoot": 4848,
  "\u2581sapol": 4849,
  "\u2581season": 4850,
  "\u2581significant": 4851,
  "\u2581kasabay": 4852,
  "\u2581mail": 4853,
  "\u2581replied": 4854,
  "\u2581Union": 4855,
  "\u2581conclude": 4856,
  "\u2581failure": 4857,
  "\u2581floor": 4858,
  "\u2581paghahanda": 4859,
  "\u2581Kumusta": 4860,
  "\u2581angkan": 4861,
  "\u2581ingatan": 4862,
  "\u2581project": 4863,
  "\u2581balanced": 4864,
  "\u2581charge": 4865,
  "\u2581imoral": 4866,
  "\u2581parami": 4867,
  "\u2581Russell": 4868,
  "sis": 4869,
  "\u25811988": 4870,
  "\u2581matatagpuan": 4871,
  "ut": 4872,
  "\u2581TO": 4873,
  "\u2581feels": 4874,
  "\u2581makikinabang": 4875,
  "\u2581pagan": 4876,
  "\u2581sobrang": 4877,
  "\u2581tribes": 4878,
  "\u2581alitan": 4879,
  "\u2581heads": 4880,
  "ant": 4881,
  "kaling": 4882,
  "\u25811945": 4883,
  "\u2581president": 4884,
  "\u2581trial": 4885,
  "Mga": 4886,
  "ina": 4887,
  "tor": 4888,
  "\u2581finished": 4889,
  "\u2581invitation": 4890,
  "\u2581skills": 4891,
  "nu": 4892,
  "\u258175": 4893,
  "\u2581Gospel": 4894,
  "\u2581matalik": 4895,
  "\u2581nagpahayag": 4896,
  "\u2581pagkaing": 4897,
  "\u2581pinakadakila": 4898,
  "\u2581straight": 4899,
  "\u2581Fariseo": 4900,
  "\u2581accompany": 4901,
  "\u2581demonstrate": 4902,
  "\u2581green": 4903,
  "\u2581located": 4904,
  "\u2581paninindigan": 4905,
  "\u2581sickness": 4906,
  "\u2581Sabbath": 4907,
  "\u2581Su": 4908,
  "\u2581basura": 4909,
  "\u2581Service": 4910,
  "\u2581expressions": 4911,
  "\u2581kanais": 4912,
  "\u2581matulungan": 4913,
  "\u2581recalls": 4914,
  "\u2581thine": 4915,
  "For": 4916,
  "\u2581Benjamin": 4917,
  "\u2581sky": 4918,
  "nda": 4919,
  "\u2581Pebrero": 4920,
  "\u2581pana": 4921,
  "\u2581Kapayapaan": 4922,
  "\u25811914,": 4923,
  "\u2581dream": 4924,
  "\u2581mangag": 4925,
  "\u2581Pasko": 4926,
  "\u2581alay": 4927,
  "\u2581kaugnay": 4928,
  "\u2581pakikinig": 4929,
  "\u2581dumadalaw": 4930,
  "\u2581Star": 4931,
  "ating": 4932,
  "chi": 4933,
  "\u2581bumili": 4934,
  "\u2581kabuhayan": 4935,
  "\u2581nagtataglay": 4936,
  "\u2581pantas": 4937,
  "\u2581services": 4938,
  "\u2581surprised": 4939,
  "\u2581Ja": 4940,
  "\u2581Katotohanan": 4941,
  "\u2581played": 4942,
  "\u2581additional": 4943,
  "\u2581dumadalo": 4944,
  "\u2581nangag": 4945,
  "\u2581phone": 4946,
  "\u2581discreet": 4947,
  "\u2581glad": 4948,
  "\u2581ipinasiya": 4949,
  "\u2581itlog": 4950,
  "\u2581paglilingkuran": 4951,
  "\u2581pagpapasiya": 4952,
  "\u2581souls": 4953,
  "\u2581Never": 4954,
  "\u2581ear": 4955,
  "\u2581sees": 4956,
  "\u2581armies": 4957,
  "\u2581bisita": 4958,
  "\u2581critical": 4959,
  "\u2581methods": 4960,
  "\u2581karne": 4961,
  "\u2581running": 4962,
  "\u25811997": 4963,
  "\u2581Get": 4964,
  "\u2581weak": 4965,
  "\u25813,000": 4966,
  "\u2581elemento": 4967,
  "\u2581kabuuang": 4968,
  "\u2581pangulo": 4969,
  "\u2581sports": 4970,
  "ner": 4971,
  "tra": 4972,
  "\u2581pangkaraniwang": 4973,
  "\u2581Note": 4974,
  "\u2581fourth": 4975,
  "\u2581mothers": 4976,
  "\u2581peaceful": 4977,
  "der": 4978,
  "et": 4979,
  "\u2581bird": 4980,
  "V": 4981,
  "\u258120]": 4982,
  "\u2581Republic": 4983,
  "\u2581happens": 4984,
  "\u2581nagsugo": 4985,
  "\u25811950": 4986,
  "\u2581Imagine": 4987,
  "\u2581ha": 4988,
  "\u2581nagmumula": 4989,
  "\u2581Maka": 4990,
  "\u2581Says": 4991,
  "\u2581agreed": 4992,
  "\u2581format": 4993,
  "\u2581glorious": 4994,
  "\u2581lugod": 4995,
  "\u2581opportunities": 4996,
  "\u2581plan": 4997,
  "lan": 4998,
  "\u2581dumarami": 4999,
  "\u2581kasulatan": 5000,
  "\u2581loves": 5001,
  "\u2581malupit": 5002,
  "\u2581unclean": 5003,
  "\u2581Pagmamasid": 5004,
  "\u2581conducted": 5005,
  "\u2581kalinisan": 5006,
  "\u2581sukdulan": 5007,
  "\u2581brochure": 5008,
  "\u2581bumubuo": 5009,
  "ING": 5010,
  "ub": 5011,
  "\u2581Bang": 5012,
  "\u2581bound": 5013,
  "\u2581burned": 5014,
  "\u2581degree": 5015,
  "\u2581kawal": 5016,
  "\u2581kilabot": 5017,
  "\u2581magpakailan": 5018,
  "\u2581reduce": 5019,
  "pilitang": 5020,
  "\u2581Nigeria": 5021,
  "\u2581fruitage": 5022,
  "\u2581hinirang": 5023,
  "\u2581upright": 5024,
  "san": 5025,
  "\u2581Filisteo": 5026,
  "\u2581aangking": 5027,
  "\u2581inner": 5028,
  "\u2581sinikap": 5029,
  "\u2581Association": 5030,
  "\u2581Linggo": 5031,
  "\u2581publiko": 5032,
  "\u2581visitors": 5033,
  "\u2581Death": 5034,
  "\u2581aspects": 5035,
  "\u2581beast": 5036,
  "\u2581exposed": 5037,
  "\u2581root": 5038,
  "mula": 5039,
  "\u2581couples": 5040,
  "\u2581gulong": 5041,
  "\u2581lumalabas": 5042,
  "\u2581pagkakapit": 5043,
  "ted": 5044,
  "\u2581Con": 5045,
  "\u2581exists": 5046,
  "\u2581magbago": 5047,
  "\u2581united": 5048,
  "\u2581useful": 5049,
  "\u2581bag": 5050,
  "las": 5051,
  "\u2581Isinulat": 5052,
  "\u2581conventions": 5053,
  "\u2581successfully": 5054,
  "\u2581taglamig": 5055,
  "\u2581nakalilipas": 5056,
  "\u2581palibhasa": 5057,
  "\u2581disaster": 5058,
  "\u2581magsi": 5059,
  "\u2581naririnig": 5060,
  "\u2581round": 5061,
  "\u2581(1)": 5062,
  "\u2581inhabited": 5063,
  "\u2581nagsisilbing": 5064,
  "\u2581pagkuha": 5065,
  "\u2581sad": 5066,
  "\u2581li": 5067,
  "\u2581symptoms": 5068,
  "\u2581task": 5069,
  "alaala": 5070,
  "\u2581\"\u2018": 5071,
  "\u2581gather": 5072,
  "\u2581remaining": 5073,
  "\u2581sinipi": 5074,
  "\u2581trono": 5075,
  "gkaroon": 5076,
  "lin": 5077,
  "\u2581Ilog": 5078,
  "\u2581tuntunin": 5079,
  "\u2581hinahanap": 5080,
  "\u2581magsasaka": 5081,
  "\u2581proof": 5082,
  "\u2581yumaon": 5083,
  "way": 5084,
  "\u2581Give": 5085,
  "\u2581possess": 5086,
  "\u2581sumasamba": 5087,
  "\u2581contain": 5088,
  "\u2581foundation": 5089,
  "\u2581gubat": 5090,
  "\u2581makina": 5091,
  "\u2581physically": 5092,
  "\u2581sigarilyo": 5093,
  "\u258119]": 5094,
  "\u2581kalamnan": 5095,
  "\u2581kawili": 5096,
  "\u2581opposite": 5097,
  "\u2581tend": 5098,
  "\u2581boluntaryo": 5099,
  "\u2581pananim": 5100,
  "\u2581ran": 5101,
  "\u2581tolda": 5102,
  "\u2581turning": 5103,
  "\u2581Columbia": 5104,
  "\u2581compare": 5105,
  "\u2581kagaya": 5106,
  "\u2581kalagitnaan": 5107,
  "\u2581kasangkapan": 5108,
  "\u2581labi": 5109,
  "\u2581tonelada": 5110,
  "\u2581contribute": 5111,
  "\u2581dangers": 5112,
  "\u2581northern": 5113,
  "\u2581pagtatrabaho": 5114,
  "\u2581salt": 5115,
  "\u2581appreciated": 5116,
  "\u2581broke": 5117,
  "\u2581pakitunguhan": 5118,
  "\u2581pictures": 5119,
  "\u2581sanga": 5120,
  "\u2581400": 5121,
  "\u2581naunawaan": 5122,
  "\u2581nabasa": 5123,
  "\u2581properly": 5124,
  "\u2581tobacco": 5125,
  "\u25811999": 5126,
  "\u2581diet": 5127,
  "\u2581pakikiapid": 5128,
  "\u2581pakikibahagi": 5129,
  "\u2581ulap": 5130,
  "\u2581iiwan": 5131,
  "\u2581pansangay": 5132,
  "\u258125:": 5133,
  "\u2581V": 5134,
  "\u2581Isip": 5135,
  "\u2581emosyon": 5136,
  "\u2581fit": 5137,
  "\u2581freely": 5138,
  "\u2581images": 5139,
  "\u2581interesting": 5140,
  "\u2581kaliwa": 5141,
  "\u2581keeps": 5142,
  "\u2581mabubuhay": 5143,
  "\u2581silangan": 5144,
  "\u2581Sarah": 5145,
  "\u2581burning": 5146,
  "\u2581fields": 5147,
  "\u2581banta": 5148,
  "\u2581malalakas": 5149,
  "\u2581propesor": 5150,
  "\u2581pumaroon": 5151,
  "\u2581Armageddon": 5152,
  "\u2581game": 5153,
  "\u2581medyo": 5154,
  "\u2581private": 5155,
  "\u2581scene": 5156,
  "\u2581streets": 5157,
  "nd": 5158,
  "\u2581Students": 5159,
  "\u2581Trinity": 5160,
  "\u2581boat": 5161,
  "All": 5162,
  "\u2581malusog": 5163,
  "\u2581table": 5164,
  "\u2581zealous": 5165,
  "\u2581Ginawa": 5166,
  "\u2581Pakisuyong": 5167,
  "\u2581kalapit": 5168,
  "\u2581visiting": 5169,
  "ot": 5170,
  "\u2581Armagedon": 5171,
  "\u2581Greece": 5172,
  "\u2581apartment": 5173,
  "\u2581bangkay": 5174,
  "\u2581panganay": 5175,
  "\u2581pinakamataas": 5176,
  "\u2581touched": 5177,
  "nt": 5178,
  "\u2581maiiwasan": 5179,
  "\u2581paminsan": 5180,
  "\u2581magkakasama": 5181,
  "\u2581napaharap": 5182,
  "\u2581pagkanaririto": 5183,
  "\u2581scale": 5184,
  "\u2581worthy": 5185,
  "\u2581assist": 5186,
  "\u2581begins": 5187,
  "\u2581fearing": 5188,
  "\u2581refuge": 5189,
  "\u2581Am": 5190,
  "\u2581burden": 5191,
  "\u2581familiar": 5192,
  "\u2581hardly": 5193,
  "\u2581moon": 5194,
  "\u2581pagkawala": 5195,
  "\u2581Lalo": 5196,
  "\u2581ikaapat": 5197,
  "\u2581malay": 5198,
  "\u2581nararanasan": 5199,
  "\u2581numerous": 5200,
  "\u258129,": 5201,
  "\u2581arranged": 5202,
  "\u2581banggitin": 5203,
  "\u2581hayaang": 5204,
  "\u2581hukbong": 5205,
  "\u2581masyadong": 5206,
  "\u2581polusyon": 5207,
  "\u2581character": 5208,
  "\u2581maglaan": 5209,
  "\u2581medicine": 5210,
  "\u2581pagkadama": 5211,
  "org": 5212,
  "\u2581Almighty": 5213,
  "\u2581Saka": 5214,
  "\u2581bangko": 5215,
  "\u2581declare": 5216,
  "\u2581medikal": 5217,
  "\u2581memory": 5218,
  "Ito": 5219,
  "\u2581divided": 5220,
  "\u2581lawa": 5221,
  "\u2581magka": 5222,
  "\u2581pleased": 5223,
  "\u2581salungat": 5224,
  "\u2581sekular": 5225,
  "mba": 5226,
  "\u2581posibilidad": 5227,
  "\u2581uniberso": 5228,
  "ful": 5229,
  "\u2581content": 5230,
  "\u2581gate": 5231,
  "\u2581listened": 5232,
  "\u2581lumikha": 5233,
  "\u2581suicide": 5234,
  "\u2581Regard": 5235,
  "\u2581Toronto": 5236,
  "\u2581east": 5237,
  "\u2581nawawala": 5238,
  "\u2581Kings": 5239,
  "\u2581baril": 5240,
  "\u2581treasure": 5241,
  "\u2581ice": 5242,
  "\u2581mention": 5243,
  "\u2581nababahala": 5244,
  "\u2581kilalanin": 5245,
  "\u2581sinful": 5246,
  "\u2581assistance": 5247,
  "\u2581excellent": 5248,
  "\u2581islands": 5249,
  "\u2581napakahirap": 5250,
  "\u2581relationships": 5251,
  "\u2581tatay": 5252,
  "\u25811998": 5253,
  "\u2581Bunga": 5254,
  "\u2581host": 5255,
  "\u2581nagpangyari": 5256,
  "\u2581tagapagsalita": 5257,
  "\u2581Bill": 5258,
  "\u2581Ga": 5259,
  "\u2581items": 5260,
  "\u2581pambansang": 5261,
  "\u2581prophetic": 5262,
  "ista": 5263,
  "\u2581$1": 5264,
  "\u2581kanino": 5265,
  "How": 5266,
  "\u2581aalaga": 5267,
  "\u2581empty": 5268,
  "\u2581kasagutan": 5269,
  "\u2581pagdalo": 5270,
  "\u2581Ben": 5271,
  "\u2581Mat": 5272,
  "\u2581Natuklasan": 5273,
  "\u2581alalahanin": 5274,
  "\u2581butas": 5275,
  "\u2581kinaroroonan": 5276,
  "\u2581tekstong": 5277,
  "not": 5278,
  "\u2581Iglesya": 5279,
  "\u2581eksaktong": 5280,
  "\u2581natupad": 5281,
  "\u2581succeed": 5282,
  "\u2581suggestions": 5283,
  "\u2581tumanggi": 5284,
  "They": 5285,
  "isa": 5286,
  "\u2581check": 5287,
  "\u2581companions": 5288,
  "\u2581matiyak": 5289,
  "\u2581nagsisisi": 5290,
  "\u2581pagkabahala": 5291,
  "\u2581sala": 5292,
  "\u2581Ar": 5293,
  "\u2581Po": 5294,
  "\u2581humanap": 5295,
  "\u2581pantahanan": 5296,
  "\u258111]": 5297,
  "\u2581Co": 5298,
  "\u2581accomplished": 5299,
  "\u2581burol": 5300,
  "\u2581dog": 5301,
  "\u2581scriptures": 5302,
  "\u2581waste": 5303,
  "\u2581Absalom": 5304,
  "\u2581Bo": 5305,
  "\u2581afterward": 5306,
  "\u2581imahen": 5307,
  "\u2581nagdulot": 5308,
  "\u2581reaction": 5309,
  "\u258133:": 5310,
  "\u2581Gu": 5311,
  "\u2581bomba": 5312,
  "\u2581parusa": 5313,
  "\u2581kriminal": 5314,
  "\u2581serbisyo": 5315,
  "\u2581solusyon": 5316,
  "\u2581spite": 5317,
  "pp": 5318,
  "\u2581hadlang": 5319,
  "\u2581kasuutan": 5320,
  "\u2581malamig": 5321,
  "\u2581pakikisama": 5322,
  "\u2581relates": 5323,
  "\u2581simulaing": 5324,
  "\u2581tender": 5325,
  "\u25811996": 5326,
  "\u2581abandoned": 5327,
  "\u2581except": 5328,
  "\u2581harmful": 5329,
  "\u2581pundasyon": 5330,
  "\u2581sumasang": 5331,
  "\u2581surgery": 5332,
  "\u2581Pangmalas": 5333,
  "\u2581Persia": 5334,
  "\u2581balang": 5335,
  "\u2581supported": 5336,
  "\u2581habit": 5337,
  "\u2581makatuwid": 5338,
  "\u2581mananampalataya": 5339,
  "atid": 5340,
  "nce": 5341,
  "\u2581Batas": 5342,
  "\u2581pleasant": 5343,
  "\u2581primary": 5344,
  "\u2581refuse": 5345,
  "our": 5346,
  "\u2581dolyar": 5347,
  "\u2581fornication": 5348,
  "\u2581innocent": 5349,
  "\u2581speed": 5350,
  "\u2581Men": 5351,
  "\u2581OF": 5352,
  "\u2581Think": 5353,
  "\u2581path": 5354,
  "\u2581reaching": 5355,
  "\u2581restored": 5356,
  "At": 5357,
  "\u2581Hu": 5358,
  "\u2581applying": 5359,
  "\u2581gets": 5360,
  "\u2581looks": 5361,
  "\u2581pagkakilala": 5362,
  "\u2581pagtatalo": 5363,
  "\u2581strengthened": 5364,
  "\u2581taba": 5365,
  "\u2581Truth": 5366,
  "\u2581illustrate": 5367,
  "\u2581multitude": 5368,
  "\u2581range": 5369,
  "\u2581traveled": 5370,
  "uhan": 5371,
  "\u2581YOU": 5372,
  "\u2581bond": 5373,
  "\u2581holding": 5374,
  "\u2581nanatiling": 5375,
  "\u2581ought": 5376,
  "\u2581pumapasok": 5377,
  "\u2581sitting": 5378,
  "\u2581Australian": 5379,
  "\u2581Eventually": 5380,
  "\u2581Sweden": 5381,
  "\u2581anti": 5382,
  "\u2581attempt": 5383,
  "\u2581nakaraan": 5384,
  "\u2581symbol": 5385,
  "\u2581Likewise": 5386,
  "\u2581X": 5387,
  "\u2581fresh": 5388,
  "\u2581kabatiran": 5389,
  "\u2581kaguluhan": 5390,
  "\u2581sansinukob": 5391,
  "\u2581technology": 5392,
  "atted": 5393,
  "great": 5394,
  "\u2581arise": 5395,
  "\u2581marry": 5396,
  "\u2581method": 5397,
  "\u2581worldly": 5398,
  "ure": 5399,
  "\u2581Moscow": 5400,
  "\u2581bihag": 5401,
  "\u2581humihiling": 5402,
  "\u2581sinned": 5403,
  "\u2581tinulungan": 5404,
  "\u2581unusual": 5405,
  "ap": 5406,
  "\u2581career": 5407,
  "\u2581instructions": 5408,
  "\u2581pinakamagaling": 5409,
  "\u258151": 5410,
  "\u2581affairs": 5411,
  "\u2581ahas": 5412,
  "\u2581itaguyod": 5413,
  "\u2581mabagal": 5414,
  "\u2581serves": 5415,
  "\u2581wear": 5416,
  "As": 5417,
  "Walang": 5418,
  "\u258172": 5419,
  "\u2581Whe": 5420,
  "\u2581driving": 5421,
  "\u2581mayayaman": 5422,
  "\u2581pansamantalang": 5423,
  "\u2581schools": 5424,
  "Ano": 5425,
  "\u2581Aklat": 5426,
  "\u2581Dan": 5427,
  "\u2581Netherlands": 5428,
  "\u2581border": 5429,
  "\u2581district": 5430,
  "\u2581gang": 5431,
  "\u2581gilalas": 5432,
  "\u2581kahalili": 5433,
  "\u2581nakababata": 5434,
  "\u2581Hukom": 5435,
  "\u2581Russian": 5436,
  "\u2581cried": 5437,
  "\u2581kapansanan": 5438,
  "\u2581kasunduan": 5439,
  "\u2581previous": 5440,
  "\u2581standard": 5441,
  "\u2581temptation": 5442,
  "\u2581Mapa": 5443,
  "\u2581bilyon": 5444,
  "\u2581pagbubulay": 5445,
  "\u2581Chinese": 5446,
  "\u2581customs": 5447,
  "\u2581occasions": 5448,
  "\u2581pagbabawal": 5449,
  "\u2581possibly": 5450,
  "\u2581Answer": 5451,
  "\u2581Ezra": 5452,
  "\u2581dealings": 5453,
  "\u2581malungkot": 5454,
  "\u2581gutom": 5455,
  "\u2581paligid": 5456,
  "\u2581verses": 5457,
  "ER": 5458,
  "kikipagkaibigan": 5459,
  "\u2581Cristo": 5460,
  "\u2581GUM": 5461,
  "\u2581Nasumpungan": 5462,
  "\u2581endeavor": 5463,
  "\u2581koreo": 5464,
  "\u2581sakuna": 5465,
  "\u2581limitasyon": 5466,
  "\u2581sakop": 5467,
  "\u258144": 5468,
  "\u2581Eli": 5469,
  "\u2581mass": 5470,
  "\u2581soberanya": 5471,
  "50": 5472,
  "syon": 5473,
  "\u00ed": 5474,
  "\u2581ED": 5475,
  "\u2581Ne": 5476,
  "\u2581deaths": 5477,
  "\u2581grief": 5478,
  "\u2581machine": 5479,
  "\u2581offerings": 5480,
  "malaking": 5481,
  "\u2581Nagsimula": 5482,
  "\u2581involve": 5483,
  "\u2581mahilig": 5484,
  "\u2581principal": 5485,
  "\u2581ilaw": 5486,
  "\u2581lovers": 5487,
  "\u2581neutral": 5488,
  "\u2581pananabik": 5489,
  "\u2581scholars": 5490,
  "\u2581sintomas": 5491,
  "\u2581Amos": 5492,
  "\u2581bibigyan": 5493,
  "\u2581bones": 5494,
  "\u2581palatandaan": 5495,
  "\u2581systems": 5496,
  "\u2581Tsina": 5497,
  "\u2581audience": 5498,
  "\u2581blue": 5499,
  "\u2581carbon": 5500,
  "\u2581playing": 5501,
  "\u2581relations": 5502,
  "nta": 5503,
  "\u25814]": 5504,
  "\u2581Israelite": 5505,
  "\u2581gradually": 5506,
  "\u2581119": 5507,
  "\u25813]": 5508,
  "\u2581anymore": 5509,
  "\u2581dress": 5510,
  "\u2581kumusta": 5511,
  "\u2581movement": 5512,
  "\u2581nagdala": 5513,
  "\u2581plans": 5514,
  "\u2581sabik": 5515,
  "\u2581Ro": 5516,
  "\u2581accident": 5517,
  "\u2581fallen": 5518,
  "\u2581salamin": 5519,
  "rin": 5520,
  "\u2581Learn": 5521,
  "\u2581nakatatakot": 5522,
  "\u2581tax": 5523,
  "ley": 5524,
  "\u25811930": 5525,
  "\u2581akala": 5526,
  "\u2581akda": 5527,
  "\u2581difficulties": 5528,
  "\u2581hardin": 5529,
  "\u2581buildings": 5530,
  "\u2581hapon": 5531,
  "\u2581nagpapatunay": 5532,
  "\u2581persona": 5533,
  "\u2581rulership": 5534,
  "\u2581tumayo": 5535,
  "\u2581advance": 5536,
  "\u2581establish": 5537,
  "\u2581kilos": 5538,
  "\u2581kindly": 5539,
  "\u2581napakaganda": 5540,
  "qui": 5541,
  "\u25811983": 5542,
  "\u2581Korea": 5543,
  "\u2581coast": 5544,
  "\u2581conscious": 5545,
  "\u2581engage": 5546,
  "\u2581ilarawan": 5547,
  "\u2581pagbabata": 5548,
  "\u2581paghahari": 5549,
  "\u2581refer": 5550,
  "\u2581terrible": 5551,
  "\u258127,": 5552,
  "\u2581asin": 5553,
  "\u2581butil": 5554,
  "\u2581elepante": 5555,
  "ISING": 5556,
  "\u2581Waring": 5557,
  "\u2581karo": 5558,
  "\u2581observes": 5559,
  "\u2581pagtugon": 5560,
  "\u2581resources": 5561,
  "\u2581Ho": 5562,
  "\u2581design": 5563,
  "\u2581sanang": 5564,
  "\u2581stake": 5565,
  "\u2581Old": 5566,
  "\u2581dear": 5567,
  "\u2581pangglobo": 5568,
  "\u2581satisfying": 5569,
  "\u2581wipe": 5570,
  "ex": 5571,
  "\u258166": 5572,
  "\u2581offers": 5573,
  "\u2581payong": 5574,
  "\u2581sanlinggo": 5575,
  "\u2581secure": 5576,
  "\u2581tatalakayin": 5577,
  "\u2581tons": 5578,
  "au": 5579,
  "iko": 5580,
  "ze": 5581,
  "\u2581Ginagawa": 5582,
  "\u2581equal": 5583,
  "\u2581figure": 5584,
  "\u2581karami": 5585,
  "\u2581pribado": 5586,
  "\u2581Ephraim": 5587,
  "\u2581Switzerland": 5588,
  "\u2581itinatag": 5589,
  "\u2581tinuruan": 5590,
  "?\"": 5591,
  "\u2581bumagsak": 5592,
  "\u2581concentration": 5593,
  "\u2581horse": 5594,
  "\u2581kilo": 5595,
  "\u2581pangangasiwa": 5596,
  "\u2581quit": 5597,
  "\u2581widow": 5598,
  "\u2581AWAKE": 5599,
  "\u2581Congregation": 5600,
  "\u2581Sydney": 5601,
  "\u2581ehersisyo": 5602,
  "\u2581faithfully": 5603,
  "\u2581grand": 5604,
  "\u2581introduced": 5605,
  "\u2581involving": 5606,
  "\u2581literally": 5607,
  "\u2581selfish": 5608,
  "\u2581Ilang": 5609,
  "\u2581Professor": 5610,
  "\u2581enerhiya": 5611,
  "\u2581nilikha": 5612,
  "\u2581Car": 5613,
  "\u2581lessons": 5614,
  "\u2581makinabang": 5615,
  "\u2581Post": 5616,
  "\u2581origin": 5617,
  "\u2581weather": 5618,
  "\u258134.": 5619,
  "\u2581attacks": 5620,
  "\u2581considering": 5621,
  "\u2581disorder": 5622,
  "\u2581matandang": 5623,
  "\u2581property": 5624,
  "\u2581Center": 5625,
  "\u2581Up": 5626,
  "\u2581Vatican": 5627,
  "\u2581depressed": 5628,
  "\u2581humihingi": 5629,
  "\u2581nakaka": 5630,
  "\u2581t": 5631,
  "\u2581warns": 5632,
  "daan": 5633,
  "\u258127]": 5634,
  "\u2581Itinuturo": 5635,
  "\u2581Street": 5636,
  "\u2581kinds": 5637,
  "\u2581nakasumpong": 5638,
  "\u2581nawala": 5639,
  "\u2581talinghaga": 5640,
  "\u2581umuwi": 5641,
  "\u2581Gawin": 5642,
  "\u2581fighting": 5643,
  "\u2581kakila": 5644,
  "\u2581katutubong": 5645,
  "\u2581kuryente": 5646,
  "\u2581nakasalig": 5647,
  "\u2581noticed": 5648,
  "\u2581palabas": 5649,
  "\u2581sand": 5650,
  "\u2581snow": 5651,
  "tin": 5652,
  "\u258110,000": 5653,
  "\u2581Gayumpaman": 5654,
  "\u2581bisa": 5655,
  "\u2581pinamagatang": 5656,
  "\u2581programs": 5657,
  "\u2581tabernakulo": 5658,
  "00": 5659,
  "\u2581Joel": 5660,
  "\u2581Red": 5661,
  "\u2581Wall": 5662,
  "\u2581calm": 5663,
  "\u2581mangmang": 5664,
  "\u2581panloob": 5665,
  "daos": 5666,
  "\u2581bank": 5667,
  "\u2581da": 5668,
  "\u2581kapansin": 5669,
  "\u2581nanggaling": 5670,
  "\u2581pollution": 5671,
  "\u2581watching": 5672,
  "\u258149": 5673,
  "\u2581Besides": 5674,
  "\u2581imperyo": 5675,
  "\u2581telephone": 5676,
  "\u2581threatened": 5677,
  "\u2581Kapans": 5678,
  "\u2581panaginip": 5679,
  "\u2581suggests": 5680,
  "\u2581determination": 5681,
  "\u2581evolution": 5682,
  "\u2581kapakumbabaan": 5683,
  "\u2581magtagumpay": 5684,
  "\u2581piece": 5685,
  "\u2581pung": 5686,
  "\u2581requirements": 5687,
  "\u2581tiyan": 5688,
  "pagkakatiwalaan": 5689,
  "\u2581Zion": 5690,
  "\u2581deeds": 5691,
  "\u2581firmly": 5692,
  "\u2581frequently": 5693,
  "\u2581ipinalalagay": 5694,
  "\u2581kitang": 5695,
  "\u2581natutulog": 5696,
  "ika": 5697,
  "lt": 5698,
  "\u2581Committee": 5699,
  "\u2581Dictionary": 5700,
  "\u2581intense": 5701,
  "\u2581printed": 5702,
  "\u2581quick": 5703,
  "\u2581sagisag": 5704,
  "\u2581tradition": 5705,
  "\u2581games": 5706,
  "\u2581komunidad": 5707,
  "\u2581Ginagamit": 5708,
  "\u2581kapanahunan": 5709,
  "\u2581propesyonal": 5710,
  "uwi": 5711,
  "\u2581Pamilya": 5712,
  "\u2581Tinataya": 5713,
  "\u2581abundant": 5714,
  "\u2581inalis": 5715,
  "\u2581pamilyar": 5716,
  "\u2581Levites": 5717,
  "\u2581aged": 5718,
  "\u2581allows": 5719,
  "\u2581model": 5720,
  "\u2581nanggagaling": 5721,
  "\u2581natuto": 5722,
  "\u2581numero": 5723,
  "\u2581commandment": 5724,
  "\u2581completed": 5725,
  "\u2581kunin": 5726,
  "\u2581magtiwala": 5727,
  "Ka": 5728,
  "ham": 5729,
  "\u2581flowers": 5730,
  "\u2581halamang": 5731,
  "\u2581obispo": 5732,
  "\u2581painful": 5733,
  "\u2581siklo": 5734,
  "\u2581sirain": 5735,
  "\u2581undeserved": 5736,
  "ros": 5737,
  "\u2581BIBLE": 5738,
  "\u2581larger": 5739,
  "\u2581makabuluhan": 5740,
  "\u2581tatanggap": 5741,
  "\u25812001": 5742,
  "\u2581reminded": 5743,
  "\u2581rose": 5744,
  "\u2581twice": 5745,
  "\u2581unless": 5746,
  "\u2581atensiyon": 5747,
  "\u2581determinasyon": 5748,
  "\u2581halagang": 5749,
  "\u2581kababaihan": 5750,
  "zi": 5751,
  "\u2581Malapit": 5752,
  "\u2581Pope": 5753,
  "\u2581lips": 5754,
  "\u2581nakalulugod": 5755,
  "\u2581pounds": 5756,
  "\u2581pulisya": 5757,
  "\u2581theory": 5758,
  "\u2581wondered": 5759,
  ",000,000": 5760,
  "\u2581AT": 5761,
  "\u2581obtained": 5762,
  "\u2581tract": 5763,
  "shi": 5764,
  "\u258147": 5765,
  "\u2581alabok": 5766,
  "\u2581dying": 5767,
  "\u2581gayunman": 5768,
  "\u2581punishment": 5769,
  "\u2581sinabihan": 5770,
  "\u2581stories": 5771,
  "\u2581bukal": 5772,
  "\u2581dwelling": 5773,
  "\u2581inilaan": 5774,
  "\u2581provisions": 5775,
  "\u2581\"[": 5776,
  "\u2581awtor": 5777,
  "\u2581cares": 5778,
  "\u2581ikapit": 5779,
  "\u2581makamit": 5780,
  "\u2581paglakad": 5781,
  "\u2581passing": 5782,
  "\u2581production": 5783,
  "\u2581professor": 5784,
  "\u2581tatanggapin": 5785,
  "\u2581tinukoy": 5786,
  "\u2581vessels": 5787,
  "\u2581100,000": 5788,
  "\u2581alok": 5789,
  "\u2581director": 5790,
  "\u2581g": 5791,
  "\u2581hidden": 5792,
  "\u2581historian": 5793,
  "\u2581operation": 5794,
  "\u2581southern": 5795,
  "che": 5796,
  "\u2581Thessalonians": 5797,
  "\u2581facing": 5798,
  "\u2581mananatili": 5799,
  "\u2581pagkapuksa": 5800,
  "\u2581prominent": 5801,
  "\u2581types": 5802,
  "inabanggit": 5803,
  "\u2581BIBLIYA": 5804,
  "\u2581Henry": 5805,
  "\u2581admitted": 5806,
  "\u2581kadahilanan": 5807,
  "\u2581sahig": 5808,
  "\u2581taste": 5809,
  "up": 5810,
  "\u258152": 5811,
  "\u2581Dad": 5812,
  "\u2581babies": 5813,
  "\u2581Philip": 5814,
  "\u2581Tim": 5815,
  "\u2581Whatever": 5816,
  "\u2581mahina": 5817,
  "\u2581manggagamot": 5818,
  "\u2581marked": 5819,
  "\u2581nagtataguyod": 5820,
  "pos": 5821,
  "\u2581inapo": 5822,
  "\u2581magsabi": 5823,
  "\u2581shepherds": 5824,
  "\u2581station": 5825,
  "\u2581tests": 5826,
  "karanas": 5827,
  "\u2581Bata": 5828,
  "\u2581Esau": 5829,
  "\u2581Nisan": 5830,
  "\u2581Pi": 5831,
  "\u2581Web": 5832,
  "\u2581annual": 5833,
  "\u2581pumatay": 5834,
  "\u2581songs": 5835,
  "\u2581widely": 5836,
  "em": 5837,
  "\u2581Further": 5838,
  "\u2581base": 5839,
  "\u2581flee": 5840,
  "\u2581healing": 5841,
  "\u2581huwaran": 5842,
  "\u2581ipinadala": 5843,
  "\u2581malulubha": 5844,
  "\u2581naglalakad": 5845,
  "\u2581opinion": 5846,
  "\u2581relihiyong": 5847,
  "\u2581replaced": 5848,
  "aalaala": 5849,
  "\u2581provision": 5850,
  "\u2581tabernacle": 5851,
  "\u2581theme": 5852,
  "\u2581alin": 5853,
  "\u2581commit": 5854,
  "\u2581grave": 5855,
  "\u2581invisible": 5856,
  "\u2581writings": 5857,
  "\u2581Sagot": 5858,
  "\u2581Sermon": 5859,
  "\u2581inilalagay": 5860,
  "\u2581kalakasan": 5861,
  "\u2581privileges": 5862,
  "\u2581(2)": 5863,
  "\u2581120": 5864,
  "\u2581pukyutan": 5865,
  "\u2581render": 5866,
  "\u2581spring": 5867,
  "\u2581tuparin": 5868,
  "ek": 5869,
  "\u2581Baha": 5870,
  "\u2581Mar": 5871,
  "\u2581impiyerno": 5872,
  "\u2581indefinite": 5873,
  "\u2581kumakapit": 5874,
  "\u2581samahan": 5875,
  "gan": 5876,
  "\u25811914.": 5877,
  "\u2581Lines": 5878,
  "\u2581Te": 5879,
  "\u2581instrumento": 5880,
  "\u2581lola": 5881,
  "\u2581mi": 5882,
  "\u2581pagtanggi": 5883,
  "\u2581reject": 5884,
  "\u2581sabay": 5885,
  "\u258119;": 5886,
  "\u2581Bansa": 5887,
  "\u2581con": 5888,
  "\u2581everywhere": 5889,
  "\u2581hit": 5890,
  "\u2581otherwise": 5891,
  "\u2581tumutugon": 5892,
  "\u2581tuwina": 5893,
  "ated": 5894,
  "\u2581Napaka": 5895,
  "\u2581Second": 5896,
  "\u2581aralin": 5897,
  "\u2581katulong": 5898,
  "\u2581mistakes": 5899,
  "\u2581nakaulat": 5900,
  "\u2581stayed": 5901,
  "\u2581Mosaic": 5902,
  "\u2581Washington": 5903,
  "\u2581custom": 5904,
  "\u2581lupon": 5905,
  "line": 5906,
  "\u2581Ca": 5907,
  "\u2581binasa": 5908,
  "\u2581kaninuman": 5909,
  "\u2581madama": 5910,
  "\u2581miracles": 5911,
  "\u2581resolve": 5912,
  "\u25811939": 5913,
  "\u2581access": 5914,
  "\u2581communicate": 5915,
  "\u2581injustice": 5916,
  "\u2581paalaala": 5917,
  "\u2581press": 5918,
  "\u2581sabbath": 5919,
  "\u2581Child": 5920,
  "\u2581Papa": 5921,
  "\u2581contained": 5922,
  "\u2581pagsulat": 5923,
  "ligang": 5924,
  "\u2581Ginamit": 5925,
  "\u2581Jonas": 5926,
  "\u2581adultery": 5927,
  "\u2581asks": 5928,
  "\u2581burnt": 5929,
  "\u2581feature": 5930,
  "\u2581wedding": 5931,
  "\u2581Aba": 5932,
  "\u2581Lu": 5933,
  "\u2581brief": 5934,
  "\u2581guilty": 5935,
  "\u2581kalakhan": 5936,
  "\u2581masasabing": 5937,
  "\u2581nagtapos": 5938,
  "\u2581qualified": 5939,
  "\u2581quiet": 5940,
  "\u2581yelo": 5941,
  "cy": 5942,
  "ite": 5943,
  "\u2581Matt": 5944,
  "\u2581Relihiyon": 5945,
  "\u2581suggested": 5946,
  "\u2581tinatahanan": 5947,
  "but": 5948,
  "\u2581Ahab": 5949,
  "\u2581alon": 5950,
  "\u2581current": 5951,
  "\u2581faces": 5952,
  "\u2581industry": 5953,
  "\u2581lines": 5954,
  "\u2581radyo": 5955,
  "\u2581victory": 5956,
  "\u2581Kay": 5957,
  "\u2581Sara": 5958,
  "\u2581forests": 5959,
  "\u2581iisipan": 5960,
  "\u2581lalawigan": 5961,
  "\u2581pagmamalasakit": 5962,
  "\u2581star": 5963,
  "\u2581ubas": 5964,
  "Pa": 5965,
  "\u2581Propesor": 5966,
  "\u2581anxious": 5967,
  "\u2581makabubuting": 5968,
  "\u2581trigo": 5969,
  "\u2581unahan": 5970,
  "\u2581aaralan": 5971,
  "\u2581beat": 5972,
  "\u2581mild": 5973,
  "\u2581nakaaalam": 5974,
  "\u2581pangkaraniwan": 5975,
  "\u2581pumili": 5976,
  "\u2581recall": 5977,
  "Magiging": 5978,
  "\u2581Hindu": 5979,
  "\u2581apektado": 5980,
  "\u2581features": 5981,
  "\u2581madla": 5982,
  "\u2581nanatili": 5983,
  "\u2581nasabi": 5984,
  "\u2581testimony": 5985,
  "\u2581Council": 5986,
  "\u2581journal": 5987,
  "\u2581post": 5988,
  "\u2581visits": 5989,
  "\u2581Ex": 5990,
  "\u2581Muslim": 5991,
  "\u2581Richard": 5992,
  "\u2581greed": 5993,
  "\u2581humiling": 5994,
  "\u258124;": 5995,
  "\u2581Thomas": 5996,
  "\u2581Year": 5997,
  "\u2581appeal": 5998,
  "\u2581arose": 5999,
  "\u2581istasyon": 6000,
  "\u2581manuskrito": 6001,
  "\u2581nakinig": 6002,
  "\u2581pantay": 6003,
  "\u2581portion": 6004,
  "\u2581spirits": 6005,
  "\u2581stick": 6006,
  "\u2581Early": 6007,
  "\u2581Nakikita": 6008,
  "\u2581Within": 6009,
  "\u2581aalisin": 6010,
  "\u2581satisfied": 6011,
  "kay": 6012,
  "\u2581En": 6013,
  "\u2581companion": 6014,
  "\u2581makahimala": 6015,
  "\u2581patunayan": 6016,
  "\u2581pitak": 6017,
  "\u2581suggest": 6018,
  "\u258114]": 6019,
  "\u258124]": 6020,
  "\u2581Hi": 6021,
  "\u2581ate": 6022,
  "\u2581makakuha": 6023,
  "\u2581pagod": 6024,
  "Jesus": 6025,
  "\u2581Tama": 6026,
  "\u2581bigla": 6027,
  "of": 6028,
  "ty": 6029,
  "\u25811993": 6030,
  "\u2581arrested": 6031,
  "\u2581attitudes": 6032,
  "\u2581creature": 6033,
  "\u2581flight": 6034,
  "\u2581fun": 6035,
  "\u2581gathering": 6036,
  "\u2581layuning": 6037,
  "\u2581patibayin": 6038,
  "\u25811940": 6039,
  "\u2581famine": 6040,
  "\u2581hinihintay": 6041,
  "\u2581ingay": 6042,
  "\u2581object": 6043,
  "\u2581sumamba": 6044,
  "\u2581ilagay": 6045,
  "\u2581magpapa": 6046,
  "\u2581mawawala": 6047,
  "\u2581princes": 6048,
  "\u2581worker": 6049,
  "\u2581Kaniya": 6050,
  "\u2581armas": 6051,
  "\u2581magdudulot": 6052,
  "\u2581panlabas": 6053,
  "\u2581writers": 6054,
  "com": 6055,
  "\u2581fruits": 6056,
  "\u2581mawala": 6057,
  "\u2581piitan": 6058,
  "\u2581prisoners": 6059,
  "rd": 6060,
  "\u258130,": 6061,
  "\u2581Herald": 6062,
  "\u2581impact": 6063,
  "\u2581nangasa": 6064,
  "\u2581poured": 6065,
  "\u2581valley": 6066,
  "\u2581Pananampalataya": 6067,
  "\u2581Pro": 6068,
  "\u2581Sinai": 6069,
  "\u2581Way": 6070,
  "\u2581balo": 6071,
  "\u2581gilid": 6072,
  "\u2581infected": 6073,
  "\u2581resulting": 6074,
  "\u2581taasan": 6075,
  "\u2581traffic": 6076,
  "\u2581usok": 6077,
  "\u2581drew": 6078,
  "\u2581haligi": 6079,
  "\u2581kabuuan": 6080,
  "\u2581kahihiyan": 6081,
  "\u2581kalugud": 6082,
  "\u2581sugat": 6083,
  "\u2581uusapan": 6084,
  "\u2581Tipan": 6085,
  "\u2581cloud": 6086,
  "\u2581commercial": 6087,
  "\u2581klerigo": 6088,
  "\u2581bubuhayin": 6089,
  "\u2581hamak": 6090,
  "\u2581maganap": 6091,
  "\u2581nangunguna": 6092,
  "\u2581solid": 6093,
  "\u2581Park": 6094,
  "\u2581amoy": 6095,
  "\u2581fled": 6096,
  "\u2581influenced": 6097,
  "\u2581pi": 6098,
  "\u2581proud": 6099,
  "\u2581routine": 6100,
  "\u258100": 6101,
  "\u2581Kasali": 6102,
  "\u2581ends": 6103,
  "\u2581ituring": 6104,
  "\u2581kanlungan": 6105,
  "\u2581niyebe": 6106,
  "\u2581represent": 6107,
  "\u2581royal": 6108,
  "\u2581talaan": 6109,
  "\u2581Scientist": 6110,
  "\u2581aspect": 6111,
  "\u2581ca": 6112,
  "\u2581kapalit": 6113,
  "\u2581maipakikita": 6114,
  "\u2581pagsisisi": 6115,
  "\u2581pananatili": 6116,
  "\u2581tuma": 6117,
  "mar": 6118,
  "\u2581Philistines": 6119,
  "\u2581blame": 6120,
  "\u2581nagpapasalamat": 6121,
  "\u2581nakasulat": 6122,
  "\u2581pagpapagal": 6123,
  "\u2581saysay": 6124,
  "\u2581Hezekiah": 6125,
  "\u2581Protestant": 6126,
  "\u2581baktirya": 6127,
  "\u2581elements": 6128,
  "\u2581farm": 6129,
  "\u2581heartfelt": 6130,
  "\u2581highest": 6131,
  "\u2581lutasin": 6132,
  "\u2581makahula": 6133,
  "\u2581masikap": 6134,
  "\u2581naiisip": 6135,
  "\u2581officer": 6136,
  "\u2581reflected": 6137,
  "\u2581takda": 6138,
  "\u2581tulos": 6139,
  "\u25812]": 6140,
  "\u2581Grand": 6141,
  "\u2581ipinagbabawal": 6142,
  "\u2581isiniwalat": 6143,
  "\u2581maabot": 6144,
  "\u2581reputation": 6145,
  "red": 6146,
  "\u25811984": 6147,
  "\u258122;": 6148,
  "\u2581Sadly": 6149,
  "\u2581Teach": 6150,
  "\u2581gained": 6151,
  "\u2581istoryador": 6152,
  "\u2581levels": 6153,
  "\u2581pagliligtas": 6154,
  "\u2581permanent": 6155,
  "\u2581visible": 6156,
  "\u2581Col": 6157,
  "\u2581Nathan": 6158,
  "\u2581cup": 6159,
  "\u2581gising": 6160,
  "\u2581kagila": 6161,
  "\u2581nagtayo": 6162,
  "\u2581nakaharap": 6163,
  "\u2581seryeng": 6164,
  "\u258140:": 6165,
  "\u2581Modern": 6166,
  "\u2581Posible": 6167,
  "\u2581WHO": 6168,
  "\u2581bumasa": 6169,
  "\u2581wari": 6170,
  "\u2581Abram": 6171,
  "\u2581Zealand": 6172,
  "\u2581drama": 6173,
  "\u2581iginagalang": 6174,
  "\u2581missing": 6175,
  "\u2581natagpuan": 6176,
  "\u2581panabik": 6177,
  "\u2581speaker": 6178,
  "\u2581v": 6179,
  "gsasangkot": 6180,
  "\u2581pressures": 6181,
  "\u2581singing": 6182,
  "\u2581square": 6183,
  "\u2581unawain": 6184,
  "\u2581widespread": 6185,
  "Kapag": 6186,
  "let": 6187,
  "\u2581Orthodox": 6188,
  "\u2581citizens": 6189,
  "\u2581nabigo": 6190,
  "\u2581rendered": 6191,
  "\u2581ex": 6192,
  "\u2581extra": 6193,
  "\u2581mahaba": 6194,
  "\u2581nagbubunga": 6195,
  "\u2581naglakbay": 6196,
  "\u2581sinners": 6197,
  "\u2581staff": 6198,
  "J": 6199,
  "tuon": 6200,
  "\u258131,": 6201,
  "\u2581Inaakala": 6202,
  "\u2581baha": 6203,
  "\u2581buhangin": 6204,
  "\u2581grain": 6205,
  "\u2581link": 6206,
  "\u2581readers": 6207,
  "ab": 6208,
  "\u2581babalik": 6209,
  "\u2581rebellion": 6210,
  "\u2581tabako": 6211,
  "\u2581Paaralan": 6212,
  "\u2581Three": 6213,
  "\u2581doors": 6214,
  "\u2581killing": 6215,
  "\u2581pagkasira": 6216,
  "\u2581relasyon": 6217,
  "\u2581Katolikong": 6218,
  "\u2581Napakarami": 6219,
  "\u2581central": 6220,
  "\u2581differences": 6221,
  "\u2581grass": 6222,
  "\u2581lumilikha": 6223,
  "\u2581newly": 6224,
  "loob": 6225,
  "\u258153": 6226,
  "\u2581Austria": 6227,
  "\u2581Department": 6228,
  "\u2581materyales": 6229,
  "\u2581obligation": 6230,
  "ero": 6231,
  "\u2581condemned": 6232,
  "\u2581demonstrated": 6233,
  "\u2581dinadala": 6234,
  "\u2581location": 6235,
  "\u2581maharlika": 6236,
  "\u2581mauunawaan": 6237,
  "\u2581rivers": 6238,
  "\u2581spending": 6239,
  "\u2581wasto": 6240,
  "nan": 6241,
  "\u2581Kinabukasan": 6242,
  "\u2581ani": 6243,
  "\u2581chemical": 6244,
  "\u2581deaf": 6245,
  "\u2581idolo": 6246,
  "\u2581ipakipag": 6247,
  "\u2581lawak": 6248,
  "\u2581pagpapalaki": 6249,
  "\u2581possession": 6250,
  "\u2581supling": 6251,
  "\u2581worshippers": 6252,
  "\u258144.": 6253,
  "\u2581Galilea": 6254,
  "\u2581Hapones": 6255,
  "\u2581Har": 6256,
  "\u2581Italian": 6257,
  "\u2581arm": 6258,
  "\u2581changing": 6259,
  "\u2581demand": 6260,
  "\u2581pinansiyal": 6261,
  "\u2581salaysay": 6262,
  "ep": 6263,
  "\u2581approached": 6264,
  "\u2581camps": 6265,
  "\u2581cm": 6266,
  "\u2581eager": 6267,
  "\u2581kasangkot": 6268,
  "\u2581looban": 6269,
  "\u2581readily": 6270,
  "\u2581umaakay": 6271,
  "\u2581Asa": 6272,
  "\u2581Upon": 6273,
  "\u2581WHAT": 6274,
  "\u2581crisis": 6275,
  "\u2581d": 6276,
  "\u2581makatarungan": 6277,
  "\u2581masidhing": 6278,
  "\u2581nagka": 6279,
  "\u2581pagpapahayag": 6280,
  "\u2581pasilidad": 6281,
  "\u2581tinatayang": 6282,
  "ana": 6283,
  "\u258134,": 6284,
  "\u2581Gideon": 6285,
  "\u2581Interestingly": 6286,
  "\u2581Rutherford": 6287,
  "\u2581afternoon": 6288,
  "\u2581masiyahan": 6289,
  "\u2581palaisip": 6290,
  "\u2581uudyok": 6291,
  "\u2581Vi": 6292,
  "\u2581admits": 6293,
  "\u2581bantay": 6294,
  "\u2581inherit": 6295,
  "\u2581sweet": 6296,
  "\u2581Micah": 6297,
  "\u2581Mosaiko": 6298,
  "\u2581binago": 6299,
  "\u2581historical": 6300,
  "\u2581kalaunan": 6301,
  "\u2581ministeryal": 6302,
  "\u2581reasoning": 6303,
  "\u2581represented": 6304,
  "\u2581sumang": 6305,
  "\u2581turns": 6306,
  "ayon": 6307,
  "\u2581Again": 6308,
  "\u2581Da": 6309,
  "\u2581dadalhin": 6310,
  "\u2581kapanganakan": 6311,
  "\u2581kasi": 6312,
  "\u2581lion": 6313,
  "\u2581repeatedly": 6314,
  "\u2581susunugin": 6315,
  "lang": 6316,
  "\u25811960": 6317,
  "\u2581Flood": 6318,
  "\u2581maiinam": 6319,
  "\u2581Women": 6320,
  "\u2581begotten": 6321,
  "\u2581income": 6322,
  "\u2581shed": 6323,
  "hang": 6324,
  "\u2581alert": 6325,
  "\u2581corruption": 6326,
  "\u2581fly": 6327,
  "\u2581mesa": 6328,
  "\u2581Jonah": 6329,
  "\u2581Mu": 6330,
  "\u2581amazing": 6331,
  "\u2581dignity": 6332,
  "\u2581isolated": 6333,
  "\u2581magturo": 6334,
  "\u2581possessions": 6335,
  "\u2581comforting": 6336,
  "\u2581paglilibang": 6337,
  "\u2581paying": 6338,
  "\u2581suplay": 6339,
  "SANG": 6340,
  "\u2581associate": 6341,
  "\u2581inilalaan": 6342,
  "\u2581Assembly": 6343,
  "\u2581Soberano": 6344,
  "\u2581atake": 6345,
  "\u2581hininga": 6346,
  "\u2581kaisa": 6347,
  "\u2581matutupad": 6348,
  "\u2581pulang": 6349,
  "\u2581Binigyan": 6350,
  "\u2581Britano": 6351,
  "\u2581DNA": 6352,
  "\u2581Shortly": 6353,
  "\u2581temperature": 6354,
  "\u2581win": 6355,
  "\u2581commission": 6356,
  "\u2581concerns": 6357,
  "\u2581jobs": 6358,
  "\u2581pagtalakay": 6359,
  "\u2581purihin": 6360,
  "\u2581ships": 6361,
  "\u2581daliri": 6362,
  "\u2581fleshly": 6363,
  "\u2581magkasala": 6364,
  "\u2581mid": 6365,
  "\u2581permanenteng": 6366,
  "\u2581restore": 6367,
  "\u2581torture": 6368,
  "\u2581tuyo": 6369,
  "\u2581viewpoint": 6370,
  "fi": 6371,
  "\u2581Caesar": 6372,
  "\u2581Sun": 6373,
  "\u2581double": 6374,
  "\u2581murder": 6375,
  "\u2581outcome": 6376,
  "\u2581pagkaalipin": 6377,
  "\u2581sirkito": 6378,
  "ally": 6379,
  "\u2581Malaking": 6380,
  "\u2581capable": 6381,
  "\u2581kagipitan": 6382,
  "\u2581makasanlibutang": 6383,
  "ip": 6384,
  "\u2581Little": 6385,
  "\u2581kabagabagan": 6386,
  "\u2581pangmadlang": 6387,
  "\u2581survived": 6388,
  "\u2581union": 6389,
  "\u2581welfare": 6390,
  "\u2581Fear": 6391,
  "\u2581Sch": 6392,
  "\u2581alituntunin": 6393,
  "\u2581nagdurusa": 6394,
  "\u2581temporary": 6395,
  "\u2581Natutuhan": 6396,
  "\u2581dollars": 6397,
  "\u2581judges": 6398,
  "Be": 6399,
  "\u2581Following": 6400,
  "\u2581Sovereign": 6401,
  "\u2581Um": 6402,
  "\u2581acting": 6403,
  "\u2581distant": 6404,
  "\u2581extended": 6405,
  "\u2581isagawa": 6406,
  "\u2581makakita": 6407,
  "\u2581pagbabalik": 6408,
  "\u2581producing": 6409,
  "\u2581reperensiya": 6410,
  "\u2581ruling": 6411,
  "\u2581sinugo": 6412,
  "\u2581twenty": 6413,
  "Young": 6414,
  "una": 6415,
  "\u2581abot": 6416,
  "\u2581author": 6417,
  "\u2581corrupt": 6418,
  "\u2581detalyado": 6419,
  "\u2581guilt": 6420,
  "\u2581losing": 6421,
  "\u2581motivated": 6422,
  "\u2581paanyaya": 6423,
  "\u2581paglingkuran": 6424,
  "\u2581shame": 6425,
  "end": 6426,
  "ology": 6427,
  "\u2581discernment": 6428,
  "\u2581happening": 6429,
  "\u2581magaganap": 6430,
  "\u2581malasin": 6431,
  "\u2581naglaan": 6432,
  "\u2581pick": 6433,
  "\u2581previously": 6434,
  "\u2581thereafter": 6435,
  "\u2581Babilonyang": 6436,
  "\u2581PAG": 6437,
  "\u2581Research": 6438,
  "\u2581acted": 6439,
  "\u2581galang": 6440,
  "\u2581hinihimok": 6441,
  "\u2581isasa": 6442,
  "\u2581katuwaan": 6443,
  "\u2581magdala": 6444,
  "\u2581wings": 6445,
  "\u2581Inihula": 6446,
  "\u2581childhood": 6447,
  "\u2581makitang": 6448,
  "\u2581pagdadalamhati": 6449,
  "\u2581sources": 6450,
  "\u2581tinitiyak": 6451,
  "\u2581Pangako": 6452,
  "\u2581approved": 6453,
  "\u2581chapters": 6454,
  "\u2581devoted": 6455,
  "\u2581pagtatanghal": 6456,
  "\u2581parke": 6457,
  "ists": 6458,
  "kan": 6459,
  "\u2581bigay": 6460,
  "\u2581civil": 6461,
  "\u2581kamangmangan": 6462,
  "\u2581limit": 6463,
  "\u2581natanto": 6464,
  "\u2581pastor": 6465,
  "\u2581puntong": 6466,
  "cha": 6467,
  "itinuring": 6468,
  "pan": 6469,
  "\u2581Living": 6470,
  "\u2581depends": 6471,
  "\u2581finds": 6472,
  "\u2581hell": 6473,
  "\u2581isinisiwalat": 6474,
  "\u2581makikilala": 6475,
  "\u2581pagbaba": 6476,
  "\u2581pagkakakilanlan": 6477,
  "\u2581strange": 6478,
  "\u2581teeth": 6479,
  "\u2581tumawag": 6480,
  "ado": 6481,
  "\u2581abuloy": 6482,
  "\u2581bintana": 6483,
  "\u2581equipment": 6484,
  "\u2581holds": 6485,
  "\u2581pagkilala": 6486,
  "\u2581vain": 6487,
  "\u2581Bagkus": 6488,
  "\u2581Makalipa": 6489,
  "\u2581enjoying": 6490,
  "\u2581feeding": 6491,
  "\u2581kinakain": 6492,
  "\u2581laganap": 6493,
  "\u2581mahahaba": 6494,
  "\u2581pagkawasak": 6495,
  "\u2581professional": 6496,
  "ini": 6497,
  "kikipagpunyagi": 6498,
  "sabay": 6499,
  "\u25812002": 6500,
  "\u2581Ehipsiyo": 6501,
  "\u2581Kenya": 6502,
  "\u2581adopted": 6503,
  "\u2581dangal": 6504,
  "\u2581existed": 6505,
  "\u2581fears": 6506,
  "\u2581fought": 6507,
  "\u2581magdulo": 6508,
  "\u2581narrow": 6509,
  "\u2581nilalaman": 6510,
  "\u2581arrangements": 6511,
  "\u2581bisyo": 6512,
  "\u2581discern": 6513,
  "\u2581hinimok": 6514,
  "\u2581kayarian": 6515,
  "\u2581measures": 6516,
  "\u2581pasanin": 6517,
  "\u2581pinabayaan": 6518,
  "\u2581pinatutunayan": 6519,
  "\u2581te": 6520,
  "\u2581Jehu": 6521,
  "\u2581leader": 6522,
  "\u2581marka": 6523,
  "\u2581sulit": 6524,
  "No": 6525,
  "tayo": 6526,
  "\u2581Je": 6527,
  "\u2581Tokyo": 6528,
  "\u2581explanation": 6529,
  "\u2581inilabas": 6530,
  "\u2581nakikinabang": 6531,
  "\u2581stage": 6532,
  "\u2581supplies": 6533,
  "\u2581survival": 6534,
  "\u2581tuwang": 6535,
  "To": 6536,
  "\u2581emergency": 6537,
  "\u2581employment": 6538,
  "\u2581horses": 6539,
  "\u2581makarating": 6540,
  "\u2581pasahero": 6541,
  "\u2581pinaniniwalaan": 6542,
  "\u2581sing": 6543,
  "\u2581terminong": 6544,
  "\u2581bulkan": 6545,
  "\u2581kaginhawahan": 6546,
  "\u2581nagtagumpay": 6547,
  "\u2581onto": 6548,
  "\u2581reap": 6549,
  "\u00e1n": 6550,
  "\u2581Kong": 6551,
  "\u2581kalupitan": 6552,
  "\u2581pagbagsak": 6553,
  "\u2581tanso": 6554,
  "Nang": 6555,
  "that": 6556,
  "\u2581Bahagi": 6557,
  "\u2581buried": 6558,
  "\u2581cure": 6559,
  "\u2581kg": 6560,
  "\u2581nariyan": 6561,
  "\u2581pregnant": 6562,
  "\u2581Buweno": 6563,
  "\u2581Him": 6564,
  "\u2581belongs": 6565,
  "\u2581climate": 6566,
  "\u2581makasama": 6567,
  "\u2581mildness": 6568,
  "\u2581seeds": 6569,
  "\u2581sisidlan": 6570,
  "\u2581spouse": 6571,
  "\u2581tropical": 6572,
  "ks": 6573,
  "will": 6574,
  "\u2581aba": 6575,
  "\u2581buk\u00e1s": 6576,
  "\u2581dayuhan": 6577,
  "\u2581ignore": 6578,
  "\u2581kalaban": 6579,
  "\u2581komunikasyon": 6580,
  "\u2581mapagmahal": 6581,
  "\u2581paghihimagsik": 6582,
  "\u2581seventh": 6583,
  "\u2581spirituality": 6584,
  "\u2581tumatahan": 6585,
  "\u2581agreement": 6586,
  "\u2581headquarters": 6587,
  "\u2581kalangitan": 6588,
  "\u2581lord": 6589,
  "\u2581mawalan": 6590,
  "\u2581mourning": 6591,
  "\u2581prutas": 6592,
  "\u2581sasakyang": 6593,
  "\u2581dantaon": 6594,
  "\u2581matamo": 6595,
  "\u2581milya": 6596,
  "\u2581ordered": 6597,
  "\u2581shortly": 6598,
  "nisikap": 6599,
  "sen": 6600,
  "\u2581Gumawa": 6601,
  "\u2581Tito": 6602,
  "\u2581materials": 6603,
  "\u2581wisely": 6604,
  "lot": 6605,
  "\u2581Bethlehem": 6606,
  "\u2581Jean": 6607,
  "\u2581Sanlibutan": 6608,
  "\u2581desert": 6609,
  "\u2581expensive": 6610,
  "\u2581moves": 6611,
  "\u2581raw": 6612,
  "\u2581rely": 6613,
  "Kayo": 6614,
  "j": 6615,
  "\u2581Halls": 6616,
  "\u2581datapuwa": 6617,
  "\u2581direktor": 6618,
  "\u2581generations": 6619,
  "\u2581height": 6620,
  "\u2581larawang": 6621,
  "\u2581linya": 6622,
  "\u2581ritwal": 6623,
  "\u2581throw": 6624,
  "lakip": 6625,
  "ris": 6626,
  "talastasan": 6627,
  "\u2581Joab": 6628,
  "\u2581aasikaso": 6629,
  "\u2581dalawin": 6630,
  "\u2581paglilinis": 6631,
  "\u2581parable": 6632,
  "\u2581preserve": 6633,
  "\u2581product": 6634,
  "\u2581protected": 6635,
  "\u2581thrown": 6636,
  "\u2581tumingin": 6637,
  "ram": 6638,
  "umahanap": 6639,
  "\u2581Concern": 6640,
  "\u2581Scripture": 6641,
  "\u2581glass": 6642,
  "\u2581pakinggan": 6643,
  "\u2581reduced": 6644,
  "\u2581stands": 6645,
  "\u2581talked": 6646,
  "nang": 6647,
  "\u258129:": 6648,
  "\u2581Eastern": 6649,
  "\u2581covering": 6650,
  "\u2581kape": 6651,
  "\u2581makasumpong": 6652,
  "\u2581pope": 6653,
  "\u2581primarily": 6654,
  "\u2581shape": 6655,
  "\u2581sufficient": 6656,
  "\u2581tinanggihan": 6657,
  "\u2581totally": 6658,
  "\u2581whereas": 6659,
  "\u2581pansinin": 6660,
  "\u2581transfusions": 6661,
  "\u2581tubo": 6662,
  "ld": 6663,
  "\u2581Age": 6664,
  "\u2581Empire": 6665,
  "\u2581Happy": 6666,
  "\u2581Inilalarawan": 6667,
  "\u2581Luther": 6668,
  "\u2581Study": 6669,
  "\u2581Which": 6670,
  "\u2581bitter": 6671,
  "\u2581bright": 6672,
  "\u2581eruplano": 6673,
  "\u2581hawak": 6674,
  "\u2581tent": 6675,
  "\u2581Nangangahulugan": 6676,
  "\u2581ban": 6677,
  "\u2581foods": 6678,
  "\u2581makasalanang": 6679,
  "\u2581maligalig": 6680,
  "\u2581sinanay": 6681,
  "\u2581subukin": 6682,
  "\u258154": 6683,
  "\u2581Agad": 6684,
  "\u2581Much": 6685,
  "\u2581Sheol": 6686,
  "\u2581deliverance": 6687,
  "\u2581gene": 6688,
  "ance": 6689,
  "\u2581Beth": 6690,
  "\u2581Iniulat": 6691,
  "\u2581Lubha": 6692,
  "\u2581alamat": 6693,
  "\u2581du": 6694,
  "\u2581kahinahunan": 6695,
  "\u2581palagi": 6696,
  "\u2581sungay": 6697,
  "\u2581wiling": 6698,
  "Ayaw": 6699,
  "Keep": 6700,
  "ide": 6701,
  "jo": 6702,
  "\u2581Babilonia": 6703,
  "\u2581Ru": 6704,
  "\u2581accepting": 6705,
  "\u2581difficulty": 6706,
  "\u2581pabor": 6707,
  "\u2581potensiyal": 6708,
  "\u2581records": 6709,
  "\u2581Ge": 6710,
  "\u2581Pacific": 6711,
  "\u2581commonly": 6712,
  "\u2581mabangis": 6713,
  "\u2581negosyante": 6714,
  "ec": 6715,
  "virtually": 6716,
  "\u2581Titus": 6717,
  "\u2581makagagawa": 6718,
  "\u2581mile": 6719,
  "\u2581patakaran": 6720,
  "\u2581pioneering": 6721,
  "\u2581finish": 6722,
  "\u2581hungry": 6723,
  "\u2581ibahagi": 6724,
  "\u2581lipi": 6725,
  "tapat": 6726,
  "\u2581Next": 6727,
  "\u2581Ruso": 6728,
  "\u2581abilities": 6729,
  "\u2581feast": 6730,
  "\u2581ipinangakong": 6731,
  "\u2581isinugo": 6732,
  "\u2581malawakang": 6733,
  "\u2581nagpapatotoo": 6734,
  "\u2581pagnanakaw": 6735,
  "\u2581seat": 6736,
  "car": 6737,
  "long": 6738,
  "\u00f3": 6739,
  "\u2581Bueno": 6740,
  "\u2581Gentiles": 6741,
  "\u2581Sasagutin": 6742,
  "\u2581branches": 6743,
  "\u2581dinisenyo": 6744,
  "\u2581emotionally": 6745,
  "\u2581exercising": 6746,
  "\u2581ikapito": 6747,
  "\u2581inihanda": 6748,
  "\u2581maghapon": 6749,
  "\u2581nagsosolo": 6750,
  "\u2581reply": 6751,
  "\u2581Manila": 6752,
  "\u2581Tu": 6753,
  "\u2581campaign": 6754,
  "\u2581disyerto": 6755,
  "\u2581empire": 6756,
  "\u2581endured": 6757,
  "\u2581naninigarilyo": 6758,
  "\u2581pagpapayunir": 6759,
  "\u2581presyon": 6760,
  "\u2581sets": 6761,
  "\u2581Faraon": 6762,
  "\u2581description": 6763,
  "\u2581kabundukan": 6764,
  "\u2581nakakakita": 6765,
  "\u2581native": 6766,
  "\u2581referring": 6767,
  "\u2581sell": 6768,
  "\u2581surrounded": 6769,
  "Why": 6770,
  "pha": 6771,
  "\u2581gumugugol": 6772,
  "\u2581ibayo": 6773,
  "\u2581lakip": 6774,
  "\u2581pagkamatapat": 6775,
  "\u2581silo": 6776,
  "\u2581sira": 6777,
  "ach": 6778,
  "his": 6779,
  "\u2581AWIT": 6780,
  "\u2581Galilee": 6781,
  "\u2581alis": 6782,
  "\u2581ginagampanan": 6783,
  "\u2581lifted": 6784,
  "\u2581makapa": 6785,
  "\u2581nagtungo": 6786,
  "\u2581nakaaapekto": 6787,
  "tuturing": 6788,
  "\u2581Bar": 6789,
  "\u2581contributed": 6790,
  "\u2581degrees": 6791,
  "\u2581fifth": 6792,
  "\u2581ginanap": 6793,
  "\u2581listahan": 6794,
  "\u2581paghahangad": 6795,
  "\u2581pagpasok": 6796,
  "\u2581remembered": 6797,
  "Isang": 6798,
  "gal": 6799,
  "\u2581Laban": 6800,
  "\u2581kalawakan": 6801,
  "\u2581kapana": 6802,
  "\u2581waves": 6803,
  "\u2581hunger": 6804,
  "\u2581malayong": 6805,
  "\u2581nagpapahayag": 6806,
  "\u2581nakatataas": 6807,
  "\u2581obligasyon": 6808,
  "\u2581pinipili": 6809,
  "\u2581plague": 6810,
  "\u2581reliable": 6811,
  "\u2581sexually": 6812,
  "\u2581usapin": 6813,
  "daraos": 6814,
  "\u2581Ikalawa": 6815,
  "\u2581Salomon": 6816,
  "\u2581breast": 6817,
  "\u2581daungan": 6818,
  "\u2581dibdib": 6819,
  "\u2581displayed": 6820,
  "\u2581kapamilya": 6821,
  "\u2581makatitiyak": 6822,
  "\u2581subjection": 6823,
  "if": 6824,
  "\u2581600": 6825,
  "\u2581Bagay": 6826,
  "\u2581Hope": 6827,
  "\u2581gratitude": 6828,
  "\u2581kapintasan": 6829,
  "\u2581kumbinsido": 6830,
  "\u2581magbasa": 6831,
  "\u2581messages": 6832,
  "\u2581pandaraya": 6833,
  "\u2581rare": 6834,
  "\u2581scholar": 6835,
  "\u2581tumaas": 6836,
  "uri": 6837,
  "\u2581Mikas": 6838,
  "\u2581capacity": 6839,
  "\u2581cattle": 6840,
  "\u2581igalang": 6841,
  "\u2581inclined": 6842,
  "\u2581makasaysayan": 6843,
  "\u2581nagbunga": 6844,
  "\u2581raising": 6845,
  "\u2581texts": 6846,
  "\u2581theocratic": 6847,
  "ard": 6848,
  "kas": 6849,
  "\u258135:": 6850,
  "\u2581Islands": 6851,
  "\u2581bubong": 6852,
  "\u2581debt": 6853,
  "\u2581fundamental": 6854,
  "ari": 6855,
  "baba": 6856,
  "ction": 6857,
  "ung": 6858,
  "\u25811918": 6859,
  "\u2581Long": 6860,
  "\u2581begun": 6861,
  "\u2581comment": 6862,
  "\u2581karalitaan": 6863,
  "\u2581partner": 6864,
  "\u2581resort": 6865,
  "\u2581symbolic": 6866,
  "\u2581teenagers": 6867,
  "\u2581dios": 6868,
  "\u2581eliminate": 6869,
  "\u2581encourages": 6870,
  "\u2581gulay": 6871,
  "\u2581lift": 6872,
  "\u2581nakuha": 6873,
  "\u2581possibility": 6874,
  "\u2581wholesome": 6875,
  "\u2581willingly": 6876,
  "Go": 6877,
  "\u2581Jeroboam": 6878,
  "\u2581differ": 6879,
  "\u2581flying": 6880,
  "\u2581hide": 6881,
  "\u2581kalye": 6882,
  "\u2581kawakasan": 6883,
  "\u2581magsasabi": 6884,
  "\u2581meaningful": 6885,
  "\u2581panauhin": 6886,
  "\u2581persecuted": 6887,
  "\u2581repentance": 6888,
  "tz": 6889,
  "\u2581Romanong": 6890,
  "\u2581foolish": 6891,
  "\u2581infant": 6892,
  "\u2581krisis": 6893,
  "\u2581matigas": 6894,
  "\u2581sagutin": 6895,
  "\u2581searching": 6896,
  "\u2581universal": 6897,
  "\u2581Ann": 6898,
  "\u2581Napansin": 6899,
  "\u2581burn": 6900,
  "\u2581nilayon": 6901,
  "\u2581plain": 6902,
  "\u2581residents": 6903,
  "\u2581villages": 6904,
  "ator": 6905,
  "\u2581Daan": 6906,
  "\u2581Marriage": 6907,
  "\u2581Portugal": 6908,
  "\u2581courageous": 6909,
  "\u2581gayunma": 6910,
  "\u2581impeksiyon": 6911,
  "\u2581remind": 6912,
  "\u2581slowly": 6913,
  "\u2581upuan": 6914,
  "\u2581Jo": 6915,
  "\u2581al": 6916,
  "\u2581mura": 6917,
  "\u2581pagkalaki": 6918,
  "\u2581returning": 6919,
  "\u2581tutulungan": 6920,
  "\u2581Martin": 6921,
  "\u2581Show": 6922,
  "\u2581himpapawid": 6923,
  "\u2581loud": 6924,
  "\u2581lumilipad": 6925,
  "\u2581ocean": 6926,
  "\u2581talks": 6927,
  "\u2581turista": 6928,
  "\u2581Binago": 6929,
  "\u2581GOD": 6930,
  "\u2581Lake": 6931,
  "\u2581Rahab": 6932,
  "\u2581ashamed": 6933,
  "\u2581idols": 6934,
  "\u2581ililigtas": 6935,
  "\u2581invite": 6936,
  "\u2581lima": 6937,
  "\u2581magkaiba": 6938,
  "\u2581review": 6939,
  "\u2581salamat": 6940,
  "og": 6941,
  "\u2581Egyptian": 6942,
  "\u2581Estudyante": 6943,
  "\u2581Kamakailan": 6944,
  "\u2581Passover": 6945,
  "\u2581Pentecostes": 6946,
  "\u2581Thou": 6947,
  "\u2581ayos": 6948,
  "\u2581magaling": 6949,
  "\u2581pagpapalain": 6950,
  "\u2581pagsasagawa": 6951,
  "\u2581sustain": 6952,
  "ow": 6953,
  "pro": 6954,
  "\u2581Inaasahan": 6955,
  "\u2581Malaki": 6956,
  "\u2581driver": 6957,
  "\u2581kagalingan": 6958,
  "\u2581matupad": 6959,
  "\u2581nasira": 6960,
  "\u2581noise": 6961,
  "\u2581pagtatalik": 6962,
  "\u2581sides": 6963,
  "cu": 6964,
  "impluwensiyahan": 6965,
  "\u2581Imperyo": 6966,
  "\u2581Paulo": 6967,
  "\u2581Pentecost": 6968,
  "\u2581believing": 6969,
  "\u2581bought": 6970,
  "\u2581eggs": 6971,
  "\u2581leeg": 6972,
  "\u2581meditate": 6973,
  "\u2581politics": 6974,
  "\u2581traditions": 6975,
  "glagay": 6976,
  "\u2581ages": 6977,
  "\u2581brotherhood": 6978,
  "\u2581equipped": 6979,
  "\u2581fuel": 6980,
  "\u2581mapagpipilian": 6981,
  "\u2581solve": 6982,
  "und": 6983,
  "\u2581Cesar": 6984,
  "\u2581Heights": 6985,
  "\u2581brethren": 6986,
  "\u2581kilusan": 6987,
  "\u2581malaon": 6988,
  "\u2581natutuwa": 6989,
  "\u2581pagsilang": 6990,
  "\u2581pagtanda": 6991,
  "\u2581catch": 6992,
  "\u2581instructed": 6993,
  "\u2581nakapagtataka": 6994,
  "\u2581objects": 6995,
  "\u2581opisina": 6996,
  "\u2581rapidly": 6997,
  "sulat": 6998,
  "\u00e3o": 6999,
  "\u2581Nehemiah": 7000,
  "\u2581awake": 7001,
  "\u2581ethnic": 7002,
  "\u2581kuwarto": 7003,
  "\u2581separated": 7004,
  "\u2581seryosong": 7005,
  "\u2581spake": 7006,
  "\u2581tinuturuan": 7007,
  "ten": 7008,
  "\u2581MULA": 7009,
  "\u2581Sion": 7010,
  "\u2581adjust": 7011,
  "\u2581apo": 7012,
  "\u2581insects": 7013,
  "\u2581maawain": 7014,
  "\u2581organisado": 7015,
  "\u2581pangalagaan": 7016,
  "\u2581repeated": 7017,
  "\u2581sub": 7018,
  "are": 7019,
  "ligtas": 7020,
  "sama": 7021,
  "\u2581\"\"": 7022,
  "\u2581autoridad": 7023,
  "\u2581commands": 7024,
  "\u2581friendly": 7025,
  "\u2581preparing": 7026,
  "\u2581roof": 7027,
  "\u2581sounds": 7028,
  "ON": 7029,
  "\u2581End": 7030,
  "\u2581Home": 7031,
  "\u2581gum": 7032,
  "\u2581kalidad": 7033,
  "\u2581merciful": 7034,
  "\u2581soft": 7035,
  "\u2581tinalakay": 7036,
  "\u2581atmospera": 7037,
  "\u2581itinataguyod": 7038,
  "\u2581lolo": 7039,
  "\u2581pagtulog": 7040,
  "\u2581Far": 7041,
  "\u2581Nehemias": 7042,
  "\u2581acknowledge": 7043,
  "\u2581eskriba": 7044,
  "\u2581faithfulness": 7045,
  "\u2581gambling": 7046,
  "\u2581hanay": 7047,
  "\u2581immune": 7048,
  "\u2581seremonya": 7049,
  "5,000": 7050,
  "ens": 7051,
  "ghahangad": 7052,
  "\u2581Lamb": 7053,
  "\u2581accompanied": 7054,
  "\u2581kabanalan": 7055,
  "\u2581matuklasan": 7056,
  "oc": 7057,
  "\u2581Messianic": 7058,
  "\u2581Use": 7059,
  "\u2581emperador": 7060,
  "\u2581flow": 7061,
  "\u2581injury": 7062,
  "\u2581klima": 7063,
  "\u2581teokratiko": 7064,
  "ize": 7065,
  "lar": 7066,
  "\u2581Elisha": 7067,
  "\u2581bingi": 7068,
  "\u2581descendants": 7069,
  "\u2581educational": 7070,
  "\u2581ikabubuti": 7071,
  "\u2581tanggap": 7072,
  "\u25811943": 7073,
  "\u2581Eliseo": 7074,
  "\u2581Elizabeth": 7075,
  "\u2581Mahirap": 7076,
  "\u2581Tangi": 7077,
  "\u2581acknowledged": 7078,
  "\u2581colors": 7079,
  "\u2581conflicts": 7080,
  "\u2581en": 7081,
  "\u2581maghintay": 7082,
  "\u2581magtanong": 7083,
  "\u2581pampamilya": 7084,
  "Pag": 7085,
  "buhay": 7086,
  "\u2581afflicted": 7087,
  "\u2581bi": 7088,
  "\u2581intended": 7089,
  "\u2581nagtatanong": 7090,
  "\u2581panata": 7091,
  "\u2581pangakong": 7092,
  "\u2581surrounding": 7093,
  "\u2581taggutom": 7094,
  "\u2581tuluyan": 7095,
  "\u2581worry": 7096,
  "\u2581worst": 7097,
  "min": 7098,
  "\u2581hayagan": 7099,
  "\u2581kalaki": 7100,
  "\u2581makadama": 7101,
  "\u2581strike": 7102,
  "Patuloy": 7103,
  "\u2581Back": 7104,
  "\u2581Magulang": 7105,
  "\u2581Pilato": 7106,
  "\u2581Promised": 7107,
  "\u2581hilingin": 7108,
  "\u2581inamin": 7109,
  "\u2581opposed": 7110,
  "\u2581pagkabalisa": 7111,
  "\u2581taluktok": 7112,
  "\u2581west": 7113,
  "\u2581Anna": 7114,
  "\u2581Millions": 7115,
  "\u2581Zechariah": 7116,
  "\u2581achieve": 7117,
  "\u2581assignments": 7118,
  "\u2581facilities": 7119,
  "\u2581modest": 7120,
  "\u2581opera": 7121,
  "\u2581pagtataguyod": 7122,
  "\u2581printing": 7123,
  "\u2581produces": 7124,
  "\u2581tagaroon": 7125,
  "\u2581treasures": 7126,
  "\u2581fed": 7127,
  "\u2581nalulugod": 7128,
  "\u2581pinahihirapan": 7129,
  "\u2581smaller": 7130,
  "\u2581structure": 7131,
  "\u2581teenage": 7132,
  "\u258156": 7133,
  "\u2581Aprikano": 7134,
  "\u2581Master": 7135,
  "\u2581depend": 7136,
  "\u2581kagustuhan": 7137,
  "\u2581kin": 7138,
  "\u2581minamalas": 7139,
  "\u2581nakukuha": 7140,
  "\u2581pinasimulan": 7141,
  "\u2581serye": 7142,
  "\u2581storm": 7143,
  "\u2581umiinom": 7144,
  "ES": 7145,
  "RA": 7146,
  "los": 7147,
  "pre": 7148,
  "with": 7149,
  "\u25811989,": 7150,
  "\u2581Truly": 7151,
  "\u2581cared": 7152,
  "\u2581executed": 7153,
  "\u2581fishing": 7154,
  "\u2581focused": 7155,
  "\u2581initiative": 7156,
  "\u2581kum": 7157,
  "\u2581madaig": 7158,
  "\u2581minute": 7159,
  "\u2581nagpapaliwanag": 7160,
  "\u2581oxygen": 7161,
  "\u2581reads": 7162,
  "\u2581typical": 7163,
  "\u2581Gi": 7164,
  "\u2581assurance": 7165,
  "\u2581bigo": 7166,
  "\u2581execution": 7167,
  "\u2581latter": 7168,
  "\u2581masakit": 7169,
  "\u2581nauukol": 7170,
  "\u2581pagkakaunawaan": 7171,
  "\u2581sumasa": 7172,
  "\u2581tatahan": 7173,
  "\u2581Makatutulong": 7174,
  "\u2581accord": 7175,
  "\u2581goats": 7176,
  "\u2581goods": 7177,
  "\u2581kawikaan": 7178,
  "\u2581papatayin": 7179,
  "ED": 7180,
  "\u2581associates": 7181,
  "\u2581damdaming": 7182,
  "\u2581nagbababala": 7183,
  "\u2581sending": 7184,
  "den": 7185,
  "\u2581Berlin": 7186,
  "\u2581Corinth": 7187,
  "\u2581Hospital": 7188,
  "\u2581Levi": 7189,
  "\u2581Pagdating": 7190,
  "\u2581lumang": 7191,
  "\u2581magtatagumpay": 7192,
  "\u2581remote": 7193,
  "cal": 7194,
  "ito": 7195,
  "\u2581Ina": 7196,
  "\u2581dalampasigan": 7197,
  "\u2581dioxide": 7198,
  "\u2581ipinaliliwanag": 7199,
  "\u2581kahawig": 7200,
  "\u2581kamalian": 7201,
  "\u2581maintaining": 7202,
  "\u2581maluwalhating": 7203,
  "\u2581pit": 7204,
  "\u2581status": 7205,
  "\u2581tela": 7206,
  "\u2581Ki": 7207,
  "\u2581bull": 7208,
  "\u2581isinaling": 7209,
  "\u2581kama": 7210,
  "\u2581nananampalataya": 7211,
  "\u2581patutot": 7212,
  "\u25811982": 7213,
  "\u2581bulayin": 7214,
  "\u2581higaan": 7215,
  "\u2581load": 7216,
  "\u2581maintindihan": 7217,
  "\u2581panlipunan": 7218,
  "\u2581puma": 7219,
  "\u2581reproach": 7220,
  "\u2581siyudad": 7221,
  "\u2581context": 7222,
  "\u2581exchange": 7223,
  "\u2581extend": 7224,
  "\u2581halamanan": 7225,
  "\u2581increasingly": 7226,
  "\u2581kabalakyutan": 7227,
  "\u2581kuta": 7228,
  "\u2581likido": 7229,
  "\u2581maingatan": 7230,
  "\u2581makasusumpong": 7231,
  "\u2581mistake": 7232,
  "\u2581pagkabata": 7233,
  "\u2581philosophy": 7234,
  "\u2581prey": 7235,
  "\u2581tagapayo": 7236,
  "\u2581transfusion": 7237,
  "kot": 7238,
  "log": 7239,
  "pon": 7240,
  "\u258113;": 7241,
  "\u2581fair": 7242,
  "\u2581lo": 7243,
  "\u2581pamilihan": 7244,
  "\u2581pleasing": 7245,
  "\u2581su": 7246,
  "\u2581warfare": 7247,
  "araw": 7248,
  "\u2581Food": 7249,
  "\u2581balitang": 7250,
  "\u2581bautisado": 7251,
  "\u2581bihasa": 7252,
  "\u2581calamity": 7253,
  "\u2581delighted": 7254,
  "\u2581engaged": 7255,
  "\u2581party": 7256,
  "\u2581pornograpya": 7257,
  "\u2581rightly": 7258,
  "\u2581sinunod": 7259,
  "\u2581stronger": 7260,
  "\u2581title": 7261,
  "ji": 7262,
  "lala": 7263,
  "\u2581Ammon": 7264,
  "\u2581Black": 7265,
  "\u2581Lazarus": 7266,
  "\u2581Pilate": 7267,
  "\u2581Ri": 7268,
  "\u2581bottom": 7269,
  "\u2581cruel": 7270,
  "\u2581disasters": 7271,
  "\u2581ginugugol": 7272,
  "\u2581harsh": 7273,
  "\u2581informed": 7274,
  "\u2581nagbabasa": 7275,
  "\u2581nagbalik": 7276,
  "\u2581perish": 7277,
  "\u2581presidente": 7278,
  "\u2581tear": 7279,
  "\u2581tired": 7280,
  "\u2581Explain": 7281,
  "\u2581Maganda": 7282,
  "\u2581Per": 7283,
  "\u2581giant": 7284,
  "\u2581inakala": 7285,
  "\u2581kapani": 7286,
  "\u2581legs": 7287,
  "\u2581susundin": 7288,
  "\u2581Ku": 7289,
  "\u2581Name": 7290,
  "\u2581Scientists": 7291,
  "\u2581fault": 7292,
  "\u2581filling": 7293,
  "\u2581illustrations": 7294,
  "\u2581pabalik": 7295,
  "\u2581pinakamainam": 7296,
  "\u2581satisfy": 7297,
  "\u2581tested": 7298,
  "\u2581trusted": 7299,
  "ok": 7300,
  "\u2581Last": 7301,
  "\u2581Zacarias": 7302,
  "\u2581alas": 7303,
  "\u2581gustu": 7304,
  "\u2581ilegal": 7305,
  "\u2581immediate": 7306,
  "\u2581mapang": 7307,
  "\u2581target": 7308,
  "\u2581thankful": 7309,
  "Narito": 7310,
  "OR": 7311,
  "ob": 7312,
  "\u2581Doing": 7313,
  "\u2581Museum": 7314,
  "\u2581Page": 7315,
  "\u2581Water": 7316,
  "\u2581armed": 7317,
  "\u2581bumabangon": 7318,
  "\u2581deadly": 7319,
  "\u2581ebanghelisador": 7320,
  "\u2581favorite": 7321,
  "\u2581function": 7322,
  "\u2581periods": 7323,
  "\u2581pinahintulutan": 7324,
  "\u2581positibo": 7325,
  "\u2581umiwas": 7326,
  "\u258139.": 7327,
  "\u2581Easter": 7328,
  "\u2581intelligent": 7329,
  "\u2581park": 7330,
  "\u2581schedule": 7331,
  "\u2581sorts": 7332,
  "\u2581sumisira": 7333,
  "daragdag": 7334,
  "ell": 7335,
  "\u2581FOR": 7336,
  "\u2581Tuw": 7337,
  "\u2581defense": 7338,
  "\u2581hoped": 7339,
  "\u2581kailanma": 7340,
  "\u2581nagtatagal": 7341,
  "\u2581Additionally": 7342,
  "\u2581Knorr": 7343,
  "\u2581Ps": 7344,
  "\u2581code": 7345,
  "\u2581elsewhere": 7346,
  "\u2581espesyal": 7347,
  "\u2581farmers": 7348,
  "\u2581ideal": 7349,
  "\u2581magkaka": 7350,
  "\u2581section": 7351,
  "tis": 7352,
  "\u2581Central": 7353,
  "\u2581admit": 7354,
  "\u2581dies": 7355,
  "\u2581ipinahahayag": 7356,
  "\u2581kumpleto": 7357,
  "\u2581matiyaga": 7358,
  "\u2581owner": 7359,
  "\u2581pangangalunya": 7360,
  "\u2581prejudice": 7361,
  "\u2581silent": 7362,
  "\u2581sugar": 7363,
  "\u2581toro": 7364,
  "her": 7365,
  "ier": 7366,
  "lit": 7367,
  "\u2581NOON": 7368,
  "\u2581cars": 7369,
  "\u2581golden": 7370,
  "\u2581itinalaga": 7371,
  "\u2581matindi": 7372,
  "\u2581network": 7373,
  "\u2581plenty": 7374,
  "\u2581shut": 7375,
  "\u2581unknown": 7376,
  "\u2581womb": 7377,
  "lic": 7378,
  "\u2581Bi": 7379,
  "\u2581coffee": 7380,
  "\u2581entirely": 7381,
  "\u2581magdadala": 7382,
  "\u2581necessarily": 7383,
  "\u2581obvious": 7384,
  "\u2581tangi": 7385,
  "\u2581teologo": 7386,
  "bayan": 7387,
  "nes": 7388,
  "\u2581Granted": 7389,
  "\u2581Samson": 7390,
  "\u2581Sarili": 7391,
  "\u2581kahabaan": 7392,
  "\u2581papalapit": 7393,
  "\u2581traits": 7394,
  "\u2581upset": 7395,
  "\u2581wave": 7396,
  "\u2581Andrew": 7397,
  "\u2581SI": 7398,
  "\u2581ensure": 7399,
  "\u2581identity": 7400,
  "\u2581nakarating": 7401,
  "\u2581sarisari": 7402,
  "\u2581sinagoga": 7403,
  "\u2581spot": 7404,
  "\u2581drawing": 7405,
  "\u2581iskedyul": 7406,
  "\u2581kapurihan": 7407,
  "\u2581linked": 7408,
  "\u2581natulungan": 7409,
  "\u2581neck": 7410,
  "\u2581pagpapagaling": 7411,
  "\u2581pagsasabing": 7412,
  "\u2581trak": 7413,
  "\u2581tumatanggi": 7414,
  "\u2581Inc": 7415,
  "\u2581Minor": 7416,
  "\u2581minor": 7417,
  "\u2581Middle": 7418,
  "\u2581impression": 7419,
  "ov": 7420,
  "\u2581Making": 7421,
  "\u2581aalala": 7422,
  "\u2581accidents": 7423,
  "\u2581karakter": 7424,
  "\u2581serpent": 7425,
  "\u2581wrongdoing": 7426,
  "IT": 7427,
  "harap": 7428,
  "oth": 7429,
  "\u2581abroad": 7430,
  "\u2581discover": 7431,
  "\u2581examination": 7432,
  "\u2581magtungo": 7433,
  "\u2581nakasalalay": 7434,
  "\u2581pagkakaibigan": 7435,
  "\u2581papunta": 7436,
  "\u2581pinagsama": 7437,
  "\u2581reputasyon": 7438,
  "\u2581yaman": 7439,
  "pinahihintulutan": 7440,
  "\u25811994,": 7441,
  "\u2581aangkin": 7442,
  "\u2581criminal": 7443,
  "\u2581illustrated": 7444,
  "\u2581inherited": 7445,
  "\u2581proverb": 7446,
  "\u2581translations": 7447,
  "\u2581\u2010": 7448,
  "\u2581Right": 7449,
  "\u2581asam": 7450,
  "\u2581board": 7451,
  "\u2581kapisanan": 7452,
  "\u2581mabibigat": 7453,
  "\u2581pin": 7454,
  "glalagay": 7455,
  "nder": 7456,
  "\u2581Gitna": 7457,
  "\u2581Mr": 7458,
  "\u2581abandon": 7459,
  "\u2581bugtong": 7460,
  "\u2581dingding": 7461,
  "\u2581katatagan": 7462,
  "\u2581nanlulumo": 7463,
  "\u2581realm": 7464,
  "\u2581tempted": 7465,
  "\u2581towns": 7466,
  "\u2581um": 7467,
  "kaapekto": 7468,
  "\u25819;": 7469,
  "\u2581Angkop": 7470,
  "\u2581Katolika": 7471,
  "\u2581MA": 7472,
  "\u2581Tulong": 7473,
  "\u2581application": 7474,
  "\u2581continually": 7475,
  "\u2581hated": 7476,
  "\u2581pampubliko": 7477,
  "\u2581piliin": 7478,
  "\u2581sinang": 7479,
  "\u2581supposed": 7480,
  "\u2581Pahina": 7481,
  "\u2581bow": 7482,
  "\u2581parapo": 7483,
  "\u2581repentant": 7484,
  "\u2581rising": 7485,
  "\u2581tuklas": 7486,
  "\u2581Ana": 7487,
  "\u2581accused": 7488,
  "\u2581assures": 7489,
  "\u2581bulaan": 7490,
  "\u2581idolatriya": 7491,
  "\u2581iniharap": 7492,
  "\u2581miracle": 7493,
  "\u2581occurs": 7494,
  "\u2581paanuman": 7495,
  "\u2581scripture": 7496,
  "\u2581Alamin": 7497,
  "\u2581Near": 7498,
  "\u2581breath": 7499,
  "\u2581drop": 7500,
  "\u2581firstborn": 7501,
  "\u2581healed": 7502,
  "\u2581kapatawaran": 7503,
  "\u2581pinayagan": 7504,
  "\u2581pursuing": 7505,
  "\u2581sanglibutan": 7506,
  "\u2581significance": 7507,
  "\u2581Finland": 7508,
  "\u2581Heb": 7509,
  "\u2581Viewpoint": 7510,
  "\u2581bar": 7511,
  "\u2581pampamilyang": 7512,
  "gsisinungaling": 7513,
  "time": 7514,
  "\u2581Dis": 7515,
  "\u2581demands": 7516,
  "\u2581discouraged": 7517,
  "\u2581miraculous": 7518,
  "\u2581motivate": 7519,
  "\u2581nagpasimula": 7520,
  "\u2581papaanong": 7521,
  "\u2581route": 7522,
  "\u2581sensitive": 7523,
  "\u2581somewhat": 7524,
  "\u2581syndrome": 7525,
  "ser": 7526,
  "\u2581Dead": 7527,
  "\u2581Macedonia": 7528,
  "\u2581fever": 7529,
  "\u2581maygulang": 7530,
  "\u2581rescue": 7531,
  "44,": 7532,
  "\u25811975": 7533,
  "\u2581Chronicles": 7534,
  "\u2581approaching": 7535,
  "\u2581bersiyon": 7536,
  "\u2581data": 7537,
  "\u2581figurative": 7538,
  "\u2581idolatry": 7539,
  "\u2581matatalino": 7540,
  "\u2581noo": 7541,
  "\u2581pagkatuto": 7542,
  "\u2581sinag": 7543,
  "\u2581slavery": 7544,
  "har": 7545,
  "\u258130:": 7546,
  "\u25815,000": 7547,
  "\u2581Dati": 7548,
  "\u2581dumaan": 7549,
  "\u2581kaawaan": 7550,
  "\u2581pakikipagbaka": 7551,
  "\u2581sentence": 7552,
  "lon": 7553,
  "\u2581desired": 7554,
  "\u2581magalang": 7555,
  "\u2581miss": 7556,
  "\u2581nagsilbing": 7557,
  "\u2581ruled": 7558,
  "\u2581similarly": 7559,
  "LA": 7560,
  "\u2581Blood": 7561,
  "\u2581Canadian": 7562,
  "\u2581costs": 7563,
  "\u2581fascinating": 7564,
  "\u2581grasp": 7565,
  "\u2581ituro": 7566,
  "\u2581makisama": 7567,
  "\u2581pormal": 7568,
  "\u2581sinasang": 7569,
  "\u2581unlad": 7570,
  "don": 7571,
  "\u2581(3)": 7572,
  "\u25811941": 7573,
  "\u2581607": 7574,
  "\u2581cease": 7575,
  "\u2581clouds": 7576,
  "\u2581companies": 7577,
  "\u2581inches": 7578,
  "\u2581planning": 7579,
  "\u2581preserved": 7580,
  "\u2581siko": 7581,
  "\u2581\u00b0": 7582,
  "\u2581commented": 7583,
  "\u2581depth": 7584,
  "\u2581flood": 7585,
  "\u2581gates": 7586,
  "\u2581kasakunaan": 7587,
  "\u2581modelo": 7588,
  "\u2581nakibahagi": 7589,
  "\u2581pangarap": 7590,
  "\u2581respected": 7591,
  "\u2581tendency": 7592,
  "lay": 7593,
  "lim": 7594,
  "\u2581Cronica": 7595,
  "\u2581Kataas": 7596,
  "\u2581kapatagan": 7597,
  "\u2581mahuhusay": 7598,
  "\u2581matutularan": 7599,
  "\u2581oksiheno": 7600,
  "\u2581pagpapatiwakal": 7601,
  "\u2581therapy": 7602,
  "ium": 7603,
  "\u2581bit": 7604,
  "\u2581hopes": 7605,
  "\u2581increases": 7606,
  "\u2581kampong": 7607,
  "\u2581propaganda": 7608,
  "\u2581wash": 7609,
  "ulo": 7610,
  "\u258136.": 7611,
  "\u2581Avoid": 7612,
  "\u2581Malachi": 7613,
  "\u2581Napakahalaga": 7614,
  "\u2581Power": 7615,
  "\u2581Pre": 7616,
  "\u2581Source": 7617,
  "\u2581Ya": 7618,
  "\u2581bantog": 7619,
  "\u2581captivity": 7620,
  "\u2581garments": 7621,
  "\u2581ginugol": 7622,
  "\u2581magsikap": 7623,
  "\u2581panonood": 7624,
  "\u2581pasan": 7625,
  "\u2581prefer": 7626,
  "\u2581regardless": 7627,
  "\u2581settled": 7628,
  "\u2581tulay": 7629,
  "lahat": 7630,
  "mas": 7631,
  "\u258138.": 7632,
  "\u2581kanina": 7633,
  "\u2581mahinang": 7634,
  "\u2581marangal": 7635,
  "\u2581prize": 7636,
  "\u2581shock": 7637,
  "\u2581wili": 7638,
  "\u2581Malakias": 7639,
  "\u2581challenging": 7640,
  "\u2581exact": 7641,
  "\u2581kakain": 7642,
  "\u2581ku": 7643,
  "\u2581mainly": 7644,
  "\u2581pilosopiya": 7645,
  "kal": 7646,
  "\u25811987,": 7647,
  "\u2581Babylonian": 7648,
  "\u2581Dumating": 7649,
  "\u2581Herod": 7650,
  "\u2581Ukraine": 7651,
  "\u2581adres": 7652,
  "\u2581era": 7653,
  "\u2581falls": 7654,
  "\u2581genetic": 7655,
  "\u2581korte": 7656,
  "\u2581maaamo": 7657,
  "\u2581strangers": 7658,
  "\u2581trahedya": 7659,
  "\u25814,000": 7660,
  "\u2581Josephus": 7661,
  "\u2581attractive": 7662,
  "\u2581bride": 7663,
  "\u2581conviction": 7664,
  "\u2581handed": 7665,
  "\u2581imperfection": 7666,
  "\u2581kikilos": 7667,
  "\u2581makayanan": 7668,
  "\u2581till": 7669,
  "Who": 7670,
  "\u2581Sir": 7671,
  "\u2581auxiliary": 7672,
  "\u2581celebration": 7673,
  "\u2581lumaganap": 7674,
  "\u2581pahalagahan": 7675,
  "\u2581spoil": 7676,
  "HA": 7677,
  "ius": 7678,
  "pang": 7679,
  "ria": 7680,
  "\u2581IT": 7681,
  "\u2581Ministeryo": 7682,
  "\u2581Natural": 7683,
  "\u2581Septuagint": 7684,
  "\u2581awitin": 7685,
  "\u2581humiwalay": 7686,
  "\u2581mistulang": 7687,
  "ik": 7688,
  "lam": 7689,
  "\u25811935": 7690,
  "\u2581Any": 7691,
  "\u2581Datapuwat": 7692,
  "\u2581Namatay": 7693,
  "\u2581admonition": 7694,
  "\u2581ahensiya": 7695,
  "\u2581crown": 7696,
  "\u2581kupon": 7697,
  "\u2581lagay": 7698,
  "\u2581marital": 7699,
  "\u2581pinalaki": 7700,
  "\u2581prophesied": 7701,
  "\u2581tragedy": 7702,
  "Look": 7703,
  "lia": 7704,
  "\u2581Alalahanin": 7705,
  "\u2581Gal": 7706,
  "\u2581adding": 7707,
  "\u2581kaban": 7708,
  "\u2581makasarili": 7709,
  "\u2581map": 7710,
  "\u2581shoulder": 7711,
  "\u2581umakyat": 7712,
  "\u2581valid": 7713,
  "70": 7714,
  "\u25813;": 7715,
  "\u2581Meanwhile": 7716,
  "\u2581kontinente": 7717,
  "\u2581takbo": 7718,
  "\u2581university": 7719,
  "\u2581Mom": 7720,
  "\u2581Tinawag": 7721,
  "\u2581Ye": 7722,
  "\u2581grows": 7723,
  "\u2581gumaling": 7724,
  "\u2581iniligtas": 7725,
  "\u2581kabayaran": 7726,
  "\u2581krus": 7727,
  "\u2581yoke": 7728,
  "new": 7729,
  "pho": 7730,
  "\u2581Lalong": 7731,
  "\u2581Stephen": 7732,
  "\u2581balon": 7733,
  "\u2581discussions": 7734,
  "\u2581institusyon": 7735,
  "\u2581lady": 7736,
  "\u2581linangin": 7737,
  "\u2581makapagbibigay": 7738,
  "\u2581pita": 7739,
  "\u2581pumapatay": 7740,
  "\u2581replace": 7741,
  "\u2581roads": 7742,
  "\u2581scribes": 7743,
  "\u2581starting": 7744,
  "\u2581teenager": 7745,
  "aga": 7746,
  "yan": 7747,
  "\u2581Jah": 7748,
  "\u2581Live": 7749,
  "\u2581falling": 7750,
  "\u2581globe": 7751,
  "\u2581kids": 7752,
  "\u2581kontento": 7753,
  "\u2581magtayo": 7754,
  "\u2581masarap": 7755,
  "\u2581nasaktan": 7756,
  "\u2581proceeded": 7757,
  "\u2581relate": 7758,
  "\u2581sumpa": 7759,
  "\u2581urges": 7760,
  "iv": 7761,
  "kikipagtulungan": 7762,
  "\u2581Unlike": 7763,
  "\u2581labing": 7764,
  "\u2581magpatotoo": 7765,
  "\u2581Years": 7766,
  "\u2581aakala": 7767,
  "\u2581lawlessness": 7768,
  "\u2581mapagtagumpayan": 7769,
  "\u2581napakahusay": 7770,
  "\u2581publicly": 7771,
  "tak": 7772,
  "\u258137.": 7773,
  "\u2581AND": 7774,
  "\u2581Pasipiko": 7775,
  "\u2581announced": 7776,
  "\u2581arrival": 7777,
  "\u2581bumaling": 7778,
  "\u2581crowds": 7779,
  "\u2581dumaraan": 7780,
  "\u2581globo": 7781,
  "\u2581mabilang": 7782,
  "\u2581nakaaaliw": 7783,
  "\u2581pagsabog": 7784,
  "\u2581pahamak": 7785,
  "\u2581peak": 7786,
  "\u2581rage": 7787,
  "\u258161": 7788,
  "\u2581Certainly": 7789,
  "\u2581Los": 7790,
  "\u2581napinsala": 7791,
  "\u2581outlook": 7792,
  "\u2581papasok": 7793,
  "\u2581permission": 7794,
  "\u2581sang": 7795,
  "\u2581145": 7796,
  "\u2581Supreme": 7797,
  "\u2581bawasan": 7798,
  "\u2581dogs": 7799,
  "\u2581lowly": 7800,
  "\u2581perfection": 7801,
  "\u2581pinakamarami": 7802,
  "\u2581pornography": 7803,
  "\u2581practiced": 7804,
  "\u2581scattered": 7805,
  "\u2581surprising": 7806,
  "\u2581tinatalakay": 7807,
  "\u2581upbuilding": 7808,
  "bel": 7809,
  "ikong": 7810,
  "was": 7811,
  "\u25811947": 7812,
  "\u2581Albert": 7813,
  "\u2581Martha": 7814,
  "\u2581Unyong": 7815,
  "\u2581addressed": 7816,
  "\u2581forgotten": 7817,
  "\u2581nakadama": 7818,
  "\u2581thoroughly": 7819,
  "Mag": 7820,
  "alam": 7821,
  "ble": 7822,
  "my": 7823,
  "\u2581TB": 7824,
  "\u2581amounts": 7825,
  "\u2581benefited": 7826,
  "\u2581kakailanganin": 7827,
  "\u2581nahulog": 7828,
  "\u2581spreading": 7829,
  "Siya": 7830,
  "\u2581Aral": 7831,
  "\u2581Globe": 7832,
  "\u2581Guro": 7833,
  "\u2581Herodes": 7834,
  "\u2581Judge": 7835,
  "\u2581Sin": 7836,
  "\u2581Ur": 7837,
  "\u2581bears": 7838,
  "\u2581blow": 7839,
  "\u2581eaten": 7840,
  "\u2581humbly": 7841,
  "\u2581peers": 7842,
  "dong": 7843,
  "fa": 7844,
  "lapit": 7845,
  "\u2581Atenas": 7846,
  "\u2581magkabila": 7847,
  "\u2581marijuana": 7848,
  "\u2581pagmamaneho": 7849,
  "\u2581sekta": 7850,
  "\u2581tumutubo": 7851,
  "\u2581Hawaii": 7852,
  "\u2581idiniin": 7853,
  "\u2581kampanya": 7854,
  "\u2581limitations": 7855,
  "\u2581lovingly": 7856,
  "\u2581maipa": 7857,
  "\u2581permit": 7858,
  "\u2581refreshing": 7859,
  "\u2581risks": 7860,
  "\u2581volunteers": 7861,
  "izing": 7862,
  "pit": 7863,
  "uk": 7864,
  "\u2581acquire": 7865,
  "\u2581amo": 7866,
  "\u2581creating": 7867,
  "\u2581gastos": 7868,
  "\u2581glorify": 7869,
  "\u2581hinatulan": 7870,
  "\u2581laruan": 7871,
  "\u2581sikat": 7872,
  "\u2581sudden": 7873,
  "\u2581weaknesses": 7874,
  "\u2581JEHOVAH": 7875,
  "\u2581makaligtas": 7876,
  "\u2581matiisin": 7877,
  "\u2581pagsusugal": 7878,
  "\u2581rewarded": 7879,
  "\u2581suklam": 7880,
  "\u2581tsuper": 7881,
  "\u2581unrighteous": 7882,
  "\u2581weekly": 7883,
  "iya": 7884,
  "\u258111201": 7885,
  "\u2581Pilipinas": 7886,
  "\u2581concept": 7887,
  "\u2581pagkakita": 7888,
  "\u2581palm": 7889,
  "\u2581pumayag": 7890,
  "\u2581rewarding": 7891,
  "\u2581tongues": 7892,
  "\u2581Lazaro": 7893,
  "\u2581Ten": 7894,
  "\u2581cool": 7895,
  "\u2581dis": 7896,
  "\u2581fitting": 7897,
  "\u2581generous": 7898,
  "\u2581naapektuhan": 7899,
  "\u2581panustos": 7900,
  "\u2581strengthening": 7901,
  "\u2581thick": 7902,
  "\u2581Evidently": 7903,
  "\u2581Things": 7904,
  "\u2581arrive": 7905,
  "\u2581daanan": 7906,
  "\u2581inutusan": 7907,
  "\u2581ipinakilala": 7908,
  "\u2581maglakbay": 7909,
  "\u2581nagmamasid": 7910,
  "\u2581oppression": 7911,
  "\u2581rejoicing": 7912,
  "\u2581suot": 7913,
  "\u2581tanggihan": 7914,
  "\u2581upper": 7915,
  "Your": 7916,
  "\u2581Americans": 7917,
  "\u2581consist": 7918,
  "\u2581deeper": 7919,
  "\u2581defend": 7920,
  "\u2581initial": 7921,
  "\u2581nars": 7922,
  "\u2581tabing": 7923,
  "\u2581Try": 7924,
  "\u2581dalang": 7925,
  "\u2581hadlangan": 7926,
  "\u2581heal": 7927,
  "\u2581kalaliman": 7928,
  "\u2581makapasok": 7929,
  "\u2581ruta": 7930,
  "UN": 7931,
  "\u2581Ke": 7932,
  "\u2581Pan": 7933,
  "\u2581aniya": 7934,
  "\u2581kaayon": 7935,
  "\u2581kapatiran": 7936,
  "\u2581mamahalin": 7937,
  "\u2581meek": 7938,
  "\u2581prominente": 7939,
  "\u2581roots": 7940,
  "\u2581Hungary": 7941,
  "\u2581Neither": 7942,
  "\u2581expert": 7943,
  "\u2581habag": 7944,
  "\u2581mapagbantay": 7945,
  "\u2581preceding": 7946,
  "\u2581prosperity": 7947,
  "\u2581reminds": 7948,
  "\u2581tapos": 7949,
  "ites": 7950,
  "\u2581Ipinahihiwatig": 7951,
  "\u2581Madali": 7952,
  "\u2581Maligaya": 7953,
  "\u2581View": 7954,
  "\u2581debate": 7955,
  "\u2581dramatic": 7956,
  "\u2581dropped": 7957,
  "\u2581immortal": 7958,
  "\u2581kahihinatnan": 7959,
  "\u2581malilimutan": 7960,
  "\u2581palapag": 7961,
  "\u2581pasukan": 7962,
  "\u2581presents": 7963,
  "\u2581profound": 7964,
  "ker": 7965,
  "\u2581(19": 7966,
  "\u25812004": 7967,
  "\u258195": 7968,
  "\u2581Nebuchadnezzar": 7969,
  "\u2581acid": 7970,
  "\u2581destructive": 7971,
  "\u2581ease": 7972,
  "\u2581edisyon": 7973,
  "\u2581improved": 7974,
  "\u2581jealousy": 7975,
  "\u2581kingdoms": 7976,
  "\u2581mabawasan": 7977,
  "\u2581moralidad": 7978,
  "\u2581participate": 7979,
  "\u2581pilosopo": 7980,
  "idad": 7981,
  "\u2581Assyria": 7982,
  "\u2581Gen": 7983,
  "\u2581Religious": 7984,
  "\u2581Were": 7985,
  "\u2581aborsiyon": 7986,
  "\u2581coupon": 7987,
  "\u2581damaged": 7988,
  "\u2581exciting": 7989,
  "\u2581lifetime": 7990,
  "\u2581naglalabas": 7991,
  "\u2581por": 7992,
  "\u2581putik": 7993,
  "\u2581sole": 7994,
  "\u2581sumigaw": 7995,
  "\u2581tuloy": 7996,
  "60": 7997,
  "des": 7998,
  "put": 7999,
  "tatamasa": 8000,
  "\u2581humankind": 8001,
  "\u2581senses": 8002,
  "\u2581sumuko": 8003,
  "\u2581tremendous": 8004,
  "iba": 8005,
  "king": 8006,
  "nti": 8007,
  "\u25812003": 8008,
  "\u2581Magbigay": 8009,
  "\u2581Mars": 8010,
  "\u2581bo": 8011,
  "\u2581enables": 8012,
  "\u2581feared": 8013,
  "\u2581ituwid": 8014,
  "\u2581nagpapayo": 8015,
  "\u2581originally": 8016,
  "\u2581segundo": 8017,
  "\u2581sharp": 8018,
  "\u2581substance": 8019,
  "\u2581tower": 8020,
  "\u2581urge": 8021,
  "\u2581winds": 8022,
  "sin": 8023,
  "\u2581Bu": 8024,
  "\u2581Everyone": 8025,
  "\u2581closed": 8026,
  "\u2581endless": 8027,
  "\u2581inspiring": 8028,
  "\u2581inter": 8029,
  "\u2581magpapatuloy": 8030,
  "\u2581motives": 8031,
  "\u2581pagtingin": 8032,
  "\u2581sorrow": 8033,
  "\u2581twelve": 8034,
  "\u2581window": 8035,
  "ibang": 8036,
  "\u2581Kapuwa": 8037,
  "\u2581Magagawa": 8038,
  "\u2581abortion": 8039,
  "\u2581beasts": 8040,
  "\u2581binti": 8041,
  "\u2581crying": 8042,
  "\u2581namely": 8043,
  "\u2581pagtutuwid": 8044,
  "\u2581pregnancy": 8045,
  "\u2581shaped": 8046,
  "\u2581tagapagmana": 8047,
  "\u2581ungodly": 8048,
  "\u2581witnessed": 8049,
  "ano": 8050,
  "qua": 8051,
  "\u2581Columbus": 8052,
  "\u2581Ng": 8053,
  "\u2581asleep": 8054,
  "\u2581considerable": 8055,
  "\u2581dragon": 8056,
  "\u2581film": 8057,
  "\u2581hahayaan": 8058,
  "\u2581hinahatulan": 8059,
  "\u2581iniquity": 8060,
  "\u2581nagtrabaho": 8061,
  "\u2581paratang": 8062,
  "awa": 8063,
  "\u25811985,": 8064,
  "\u2581Katulad": 8065,
  "\u2581declaring": 8066,
  "\u2581effectively": 8067,
  "\u2581iwas": 8068,
  "\u2581nagagalak": 8069,
  "\u2581namamahala": 8070,
  "\u2581pahirapan": 8071,
  "\u2581safeguard": 8072,
  "\u2581wheat": 8073,
  "\u2581General": 8074,
  "\u2581Notice": 8075,
  "\u2581Scotland": 8076,
  "\u2581advanced": 8077,
  "\u2581apparent": 8078,
  "\u2581ipag": 8079,
  "\u2581judgments": 8080,
  "\u2581permitted": 8081,
  "\u2581pinakamahusay": 8082,
  "\u2581recommended": 8083,
  "\u2581sumakay": 8084,
  "\u2581sumi": 8085,
  "\u00fc": 8086,
  "\u25816,000": 8087,
  "\u2581Amazon": 8088,
  "\u2581Sam": 8089,
  "\u2581clay": 8090,
  "\u2581dumaraming": 8091,
  "\u2581idinagdag": 8092,
  "\u2581nagkakasala": 8093,
  "\u2581rooms": 8094,
  "\u2581suitable": 8095,
  "\u2581sunog": 8096,
  "\u2581wearing": 8097,
  "cho": 8098,
  "\u2581Alexander": 8099,
  "\u2581Egyptians": 8100,
  "\u2581Worship": 8101,
  "\u2581broad": 8102,
  "\u2581domestic": 8103,
  "\u2581imbot": 8104,
  "\u2581instrument": 8105,
  "\u2581kapit": 8106,
  "\u2581nangako": 8107,
  "\u2581pagsasaliksik": 8108,
  "\u2581tumigil": 8109,
  "\u2581Heart": 8110,
  "\u2581alaman": 8111,
  "\u2581compassionate": 8112,
  "\u2581discussing": 8113,
  "\u2581masabi": 8114,
  "\u2581nakasakay": 8115,
  "\u2581napapansin": 8116,
  "\u2581pagpapasakop": 8117,
  "\u2581pangwakas": 8118,
  "30": 8119,
  "mor": 8120,
  "nilarawan": 8121,
  "\u2581250": 8122,
  "\u2581Paraon": 8123,
  "\u2581bacteria": 8124,
  "\u2581emperor": 8125,
  "\u2581guided": 8126,
  "\u2581isinaayos": 8127,
  "\u2581lake": 8128,
  "\u2581limits": 8129,
  "\u25811985": 8130,
  "\u2581Ibang": 8131,
  "\u2581KA": 8132,
  "\u2581Peru": 8133,
  "\u2581applies": 8134,
  "\u2581motor": 8135,
  "\u2581olibo": 8136,
  "\u2581ordinary": 8137,
  "Magkakaroon": 8138,
  "\u2581Kanino": 8139,
  "\u2581balikat": 8140,
  "\u2581bunton": 8141,
  "\u2581comfortable": 8142,
  "\u2581instruments": 8143,
  "\u2581pababa": 8144,
  "\u2581pakana": 8145,
  "\u2581sumusulong": 8146,
  "\u2581tagapagsalin": 8147,
  "By": 8148,
  "\u2581110": 8149,
  "\u2581Buhat": 8150,
  "\u2581Prayer": 8151,
  "\u2581ga": 8152,
  "\u2581kinilala": 8153,
  "\u2581largely": 8154,
  "\u2581libing": 8155,
  "\u2581malibang": 8156,
  "\u2581nasiyahan": 8157,
  "\u2581pagsasakripisyo": 8158,
  "\u2581rebellious": 8159,
  "\u2581volume": 8160,
  "ANG": 8161,
  "\u2581AS": 8162,
  "\u2581Pennsylvania": 8163,
  "\u2581actual": 8164,
  "\u2581balumbon": 8165,
  "\u2581bumuo": 8166,
  "\u2581containing": 8167,
  "\u2581ginhawa": 8168,
  "\u2581homoseksuwal": 8169,
  "\u2581nagpapatibay": 8170,
  "\u2581nangangako": 8171,
  "\u2581paglalagay": 8172,
  "\u2581tea": 8173,
  "ou": 8174,
  "\u258183": 8175,
  "\u2581Spiritual": 8176,
  "\u2581infection": 8177,
  "\u2581kontrolado": 8178,
  "\u2581nagkaka": 8179,
  "\u2581natututo": 8180,
  "\u2581normally": 8181,
  "\u2581openly": 8182,
  "\u2581pagtatangka": 8183,
  "\u2581shell": 8184,
  "\u2581survivors": 8185,
  "\u2581tina": 8186,
  "\u2581weakness": 8187,
  "\u2581Mail": 8188,
  "\u2581Researchers": 8189,
  "\u2581Ti": 8190,
  "\u2581asno": 8191,
  "\u2581baguhan": 8192,
  "\u2581barya": 8193,
  "\u2581crops": 8194,
  "\u2581isinalin": 8195,
  "\u2581konteksto": 8196,
  "\u2581minded": 8197,
  "\u2581pakete": 8198,
  "\u2581pamamahagi": 8199,
  "\u2581solar": 8200,
  "\u2581ubasan": 8201,
  "\u2581Caleb": 8202,
  "\u2581Ephesus": 8203,
  "\u2581Nabucodonosor": 8204,
  "\u2581Need": 8205,
  "\u2581afford": 8206,
  "\u2581choices": 8207,
  "\u2581extensive": 8208,
  "\u2581figures": 8209,
  "\u2581judged": 8210,
  "\u2581luklukan": 8211,
  "\u2581magamit": 8212,
  "\u2581masagot": 8213,
  "\u2581nagtatamasa": 8214,
  "\u2581nama": 8215,
  "\u2581pinakamaganda": 8216,
  "\u2581sapatos": 8217,
  "pinaliliwanag": 8218,
  "\u25811946": 8219,
  "\u2581ITO": 8220,
  "\u2581Isipin": 8221,
  "\u2581aalok": 8222,
  "\u2581alcoholic": 8223,
  "\u2581avoided": 8224,
  "\u2581racial": 8225,
  "\u2581rid": 8226,
  "\u2581ride": 8227,
  "\u2581shadow": 8228,
  "asyon": 8229,
  "ors": 8230,
  "\u2581Denmark": 8231,
  "\u2581Nilalaman": 8232,
  "\u2581Syria": 8233,
  "\u2581banned": 8234,
  "\u2581batayan": 8235,
  "\u2581decade": 8236,
  "\u2581despair": 8237,
  "\u2581loose": 8238,
  "\u2581maintained": 8239,
  "\u2581muscles": 8240,
  "\u2581pula": 8241,
  "\u2581strongly": 8242,
  "\u2581tumagal": 8243,
  "bra": 8244,
  "\u2581Frank": 8245,
  "\u2581Mababasa": 8246,
  "\u2581Newsweek": 8247,
  "\u2581Part": 8248,
  "\u2581asukal": 8249,
  "\u2581breaking": 8250,
  "\u2581cycle": 8251,
  "\u2581distributed": 8252,
  "\u2581inilipat": 8253,
  "\u2581kilal\u00e1": 8254,
  "\u2581nangangasiwa": 8255,
  "IS": 8256,
  "gaya": 8257,
  "ju": 8258,
  "\u2581KUNG": 8259,
  "\u2581Matagal": 8260,
  "\u2581Persian": 8261,
  "\u2581continuing": 8262,
  "\u2581donasyon": 8263,
  "\u2581enormous": 8264,
  "\u2581hinayaan": 8265,
  "\u2581hospitality": 8266,
  "\u2581mahalay": 8267,
  "\u2581naglaho": 8268,
  "\u2581opposers": 8269,
  "EN": 8270,
  "nikap": 8271,
  "\u25817;": 8272,
  "\u258185": 8273,
  "\u2581Du": 8274,
  "\u2581Future": 8275,
  "\u2581atubili": 8276,
  "\u2581combined": 8277,
  "\u2581earthquake": 8278,
  "\u2581empleado": 8279,
  "\u2581imprisoned": 8280,
  "\u2581kaklase": 8281,
  "\u2581lipulin": 8282,
  "\u2581listeners": 8283,
  "\u2581nakaalay": 8284,
  "\u2581thereby": 8285,
  "\u2581tumitingin": 8286,
  "\u25812;": 8287,
  "\u2581Levitico": 8288,
  "\u2581Rock": 8289,
  "\u2581forgiving": 8290,
  "\u2581ipaalam": 8291,
  "\u2581nagpapakitang": 8292,
  "\u2581pananalapi": 8293,
  "\u2581prime": 8294,
  "\u2581pugad": 8295,
  "\u25816;": 8296,
  "\u2581anunsiyo": 8297,
  "\u2581banda": 8298,
  "\u2581bone": 8299,
  "\u2581college": 8300,
  "\u2581delegado": 8301,
  "\u2581matulog": 8302,
  "\u2581memories": 8303,
  "\u2581nasusumpungan": 8304,
  "\u2581seal": 8305,
  "\u2581tulog": 8306,
  "pin": 8307,
  "\u2581Ay": 8308,
  "\u2581Gunigunihin": 8309,
  "\u2581Luc": 8310,
  "\u2581Naomi": 8311,
  "\u2581Puso": 8312,
  "\u2581Talaan": 8313,
  "\u2581acquainted": 8314,
  "\u2581chronic": 8315,
  "\u2581manlalaro": 8316,
  "\u2581tinik": 8317,
  "fer": 8318,
  "kung": 8319,
  "ww": 8320,
  "\u2581Italyano": 8321,
  "\u2581Sumunod": 8322,
  "\u2581kakapusan": 8323,
  "\u2581magtamo": 8324,
  "\u2581nagpadala": 8325,
  "\u2581passage": 8326,
  "\u2581peer": 8327,
  "\u2581plane": 8328,
  "\u2581recreation": 8329,
  "ship": 8330,
  "\u25811987": 8331,
  "\u2581Medicine": 8332,
  "\u2581Taon": 8333,
  "\u2581eksena": 8334,
  "\u2581lalim": 8335,
  "\u2581makaliligtas": 8336,
  "\u2581oldest": 8337,
  "\u2581pagsuway": 8338,
  "\u2581puna": 8339,
  "\u2581steal": 8340,
  "\u2581tema": 8341,
  "\u2581tinatamasa": 8342,
  "\u2581wheel": 8343,
  "era": 8344,
  "iti": 8345,
  "port": 8346,
  "sinisiwalat": 8347,
  "\u2581Ancient": 8348,
  "\u2581Belgium": 8349,
  "\u2581Darwin": 8350,
  "\u2581Georgia": 8351,
  "\u2581Karen": 8352,
  "\u2581Leviticus": 8353,
  "\u2581Map": 8354,
  "\u2581Natin": 8355,
  "\u2581addiction": 8356,
  "\u2581earthquakes": 8357,
  "\u2581incense": 8358,
  "\u2581isilang": 8359,
  "\u2581kahalaga": 8360,
  "\u2581lasa": 8361,
  "\u2581meantime": 8362,
  "\u2581shot": 8363,
  "\u2581sleeping": 8364,
  ",000": 8365,
  "lag": 8366,
  "nasa": 8367,
  "\u2581Answers": 8368,
  "\u2581cutting": 8369,
  "\u2581fashion": 8370,
  "\u2581hukay": 8371,
  "\u2581ilalagay": 8372,
  "\u2581katiwala": 8373,
  "\u2581kurso": 8374,
  "\u2581lumalapit": 8375,
  "\u2581paghahayag": 8376,
  "\u2581version": 8377,
  "led": 8378,
  "\u2581Actually": 8379,
  "\u2581Fa": 8380,
  "\u2581Know": 8381,
  "\u2581dahan": 8382,
  "\u2581expectation": 8383,
  "\u2581garment": 8384,
  "\u2581gun": 8385,
  "\u2581mates": 8386,
  "\u2581rapid": 8387,
  "\u2581sesyon": 8388,
  "\u2581tibay": 8389,
  "\u2581washed": 8390,
  "ple": 8391,
  "there": 8392,
  "\u2581kapaha": 8393,
  "\u2581labag": 8394,
  "\u2581lambat": 8395,
  "\u2581marating": 8396,
  "\u2581patiently": 8397,
  "\u2581tore": 8398,
  "20": 8399,
  "\u2581Pu": 8400,
  "\u2581Tyndale": 8401,
  "\u2581abo": 8402,
  "\u2581attribute": 8403,
  "\u2581climb": 8404,
  "\u2581duty": 8405,
  "\u2581edge": 8406,
  "\u2581expectations": 8407,
  "\u2581experiencing": 8408,
  "\u2581extraordinary": 8409,
  "\u2581inaalis": 8410,
  "\u2581rarely": 8411,
  "\u2581wealthy": 8412,
  "ntil": 8413,
  "\u2581Tatalakayin": 8414,
  "\u2581biyaya": 8415,
  "\u2581concludes": 8416,
  "\u2581confirmed": 8417,
  "\u2581entering": 8418,
  "\u2581mangangalakal": 8419,
  "\u2581nakalulungkot": 8420,
  "\u2581obeying": 8421,
  "\u2581pangalawang": 8422,
  "\u2581panlilinlang": 8423,
  "\u2581prospects": 8424,
  "\u2581seemingly": 8425,
  "\u2581shine": 8426,
  "\u2581tahasan": 8427,
  "\u2581tanyag": 8428,
  "\u2581tradisyonal": 8429,
  "bad": 8430,
  "dinagdag": 8431,
  "ele": 8432,
  "\u2581Lumilitaw": 8433,
  "\u2581ipinangangaral": 8434,
  "\u2581kondisyon": 8435,
  "\u2581kumukuha": 8436,
  "\u2581magkakapatid": 8437,
  "\u2581mamahala": 8438,
  "\u2581marriages": 8439,
  "\u2581maruming": 8440,
  "\u2581nagturo": 8441,
  "\u2581sambahin": 8442,
  "\u2581sinunog": 8443,
  "niisip": 8444,
  "\u2581bisig": 8445,
  "\u2581classes": 8446,
  "\u2581disappointed": 8447,
  "\u2581element": 8448,
[...]
